{
  "version": "1.0",
  "truncation": {
    "direction": "Right",
    "max_length": 128,
    "strategy": "LongestFirst",
    "stride": 0
  },
  "padding": {
    "strategy": "BatchLongest",
    "direction": "Right",
    "pad_to_multiple_of": null,
    "pad_id": 0,
    "pad_type_id": 0,
    "pad_token": "[PAD]"
  },
  "added_tokens": [
    {
      "id": 0,
      "content": "[PAD]",
      "single_word": false,
      "lstrip": false,
      "rstrip": false,
      "normalized": false,
      "special": true
    },
    {
      "id": 1,
      "content": "[UNK]",
      "single_word": false,
      "lstrip": false,
      "rstrip": false,
      "normalized": false,
      "special": true
    },
    {
      "id": 2,
      "content": "[CLS]",
      "single_word": false,
      "lstrip": false,
      "rstrip": false,
      "normalized": false,
      "special": true
    },
    {
      "id": 3,
      "content": "[SEP]",
      "single_word": false,
      "lstrip": false,
      "rstrip": false,
      "normalized": false,
      "special": true
    },
    {
      "id": 4,
      "content": "[MASK]",
      "single_word": false,
      "lstrip": false,
      "rstrip": false,
      "normalized": false,
      "special": true
    }
  ],
  "normalizer": null,
  "pre_tokenizer": {
    "type": "Whitespace"
  },
  "post_processor": null,
  "decoder": null,
  "model": {
    "type": "BPE",
    "dropout": null,
    "unk_token": null,
    "continuing_subword_prefix": null,
    "end_of_word_suffix": null,
    "fuse_unk": false,
    "byte_fallback": false,
    "ignore_merges": false,
    "vocab": {
      "[PAD]": 0,
      "[UNK]": 1,
      "[CLS]": 2,
      "[SEP]": 3,
      "[MASK]": 4,
      "-": 5,
      ".": 6,
      "/": 7,
      "0": 8,
      "1": 9,
      "2": 10,
      "3": 11,
      "4": 12,
      "5": 13,
      "6": 14,
      "7": 15,
      "8": 16,
      "9": 17,
      ":": 18,
      "A": 19,
      "B": 20,
      "C": 21,
      "D": 22,
      "E": 23,
      "F": 24,
      "G": 25,
      "H": 26,
      "I": 27,
      "J": 28,
      "K": 29,
      "L": 30,
      "M": 31,
      "N": 32,
      "O": 33,
      "P": 34,
      "Q": 35,
      "R": 36,
      "S": 37,
      "T": 38,
      "U": 39,
      "V": 40,
      "W": 41,
      "X": 42,
      "Y": 43,
      "a": 44,
      "b": 45,
      "c": 46,
      "d": 47,
      "e": 48,
      "f": 49,
      "g": 50,
      "h": 51,
      "i": 52,
      "j": 53,
      "k": 54,
      "l": 55,
      "m": 56,
      "n": 57,
      "o": 58,
      "p": 59,
      "q": 60,
      "r": 61,
      "s": 62,
      "t": 63,
      "u": 64,
      "v": 65,
      "w": 66,
      "x": 67,
      "y": 68,
      "z": 69,
      "ro": 70,
      "in": 71,
      "er": 72,
      "to": 73,
      "fro": 74,
      "from": 75,
      "re": 76,
      "on": 77,
      "te": 78,
      "an": 79,
      "en": 80,
      "al": 81,
      "or": 82,
      "st": 83,
      "ti": 84,
      "le": 85,
      "th": 86,
      "ce": 87,
      "lo": 88,
      "ar": 89,
      "TP": 90,
      "ou": 91,
      "se": 92,
      "20": 93,
      "13": 94,
      "19": 95,
      "17": 96,
      "15": 97,
      "14": 98,
      "16": 99,
      "18": 100,
      "de": 101,
      "10": 102,
      "om": 103,
      "12": 104,
      "ic": 105,
      "tion": 106,
      "ss": 107,
      "ing": 108,
      "ec": 109,
      "at": 110,
      "ad": 111,
      "tr": 112,
      "22": 113,
      "ent": 114,
      "it": 115,
      "ac": 116,
      "sh": 117,
      "ge": 118,
      "24": 119,
      "23": 120,
      "ve": 121,
      "HT": 122,
      "HTTP": 123,
      "il": 124,
      "ted": 125,
      "ff": 126,
      "su": 127,
      "and": 128,
      "el": 129,
      "ow": 130,
      "pa": 131,
      "SS": 132,
      "ne": 133,
      "qu": 134,
      "si": 135,
      "ly": 136,
      "ver": 137,
      "ch": 138,
      "for": 139,
      "gh": 140,
      "me": 141,
      "25": 142,
      "ul": 143,
      "est": 144,
      "con": 145,
      "ma": 146,
      "gin": 147,
      "com": 148,
      "sp": 149,
      "mp": 150,
      "MTP": 151,
      "SMTP": 152,
      "SSH": 153,
      "DN": 154,
      "DNS": 155,
      "login": 156,
      "our": 157,
      "cess": 158,
      "ter": 159,
      "la": 160,
      "ca": 161,
      "ol": 162,
      "ta": 163,
      "ffic": 164,
      "own": 165,
      "tra": 166,
      "11": 167,
      "ous": 168,
      "ort": 169,
      "pro": 170,
      "us": 171,
      "ke": 172,
      "od": 173,
      "di": 174,
      "sc": 175,
      "be": 176,
      "ious": 177,
      "ther": 178,
      "ex": 179,
      "vi": 180,
      "hi": 181,
      "un": 182,
      "jec": 183,
      "down": 184,
      "net": 185,
      "per": 186,
      "requ": 187,
      "ur": 188,
      "flo": 189,
      "ity": 190,
      "ri": 191,
      "au": 192,
      "Tel": 193,
      "li": 194,
      "downlo": 195,
      "ever": 196,
      "Telnet": 197,
      "CM": 198,
      "ICM": 199,
      "ICMP": 200,
      "DP": 201,
      "UDP": 202,
      "request": 203,
      "traffic": 204,
      "HTTPS": 205,
      "atte": 206,
      "ation": 207,
      "CP": 208,
      "TCP": 209,
      "ans": 210,
      "FTP": 211,
      "ment": 212,
      "go": 213,
      "ed": 214,
      "wh": 215,
      "ble": 216,
      "injec": 217,
      "mo": 218,
      "mpt": 219,
      "attempt": 220,
      "icious": 221,
      "ght": 222,
      "ate": 223,
      "ci": 224,
      "ful": 225,
      "wa": 226,
      "fe": 227,
      "ard": 228,
      "ir": 229,
      "one": 230,
      "iz": 231,
      "ind": 232,
      "ource": 233,
      "ru": 234,
      "ple": 235,
      "sent": 236,
      "source": 237,
      "mal": 238,
      "sha": 239,
      "ag": 240,
      "og": 241,
      "ccess": 242,
      "he": 243,
      "po": 244,
      "success": 245,
      "red": 246,
      "ure": 247,
      "mer": 248,
      "ach": 249,
      "road": 250,
      "ome": 251,
      "age": 252,
      "ue": 253,
      "ile": 254,
      "sel": 255,
      "thor": 256,
      "iti": 257,
      "ree": 258,
      "inde": 259,
      "tro": 260,
      "shake": 261,
      "hand": 262,
      "author": 263,
      "man": 264,
      "successful": 265,
      "pre": 266,
      "the": 267,
      "ight": 268,
      "tor": 269,
      "ra": 270,
      "pp": 271,
      "der": 272,
      "ence": 273,
      "AR": 274,
      "broad": 275,
      "cast": 276,
      "ARP": 277,
      "broadcast": 278,
      "ine": 279,
      "all": 280,
      "ade": 281,
      "ab": 282,
      "ell": 283,
      "File": 284,
      "trus": 285,
      "downloade": 286,
      "trusted": 287,
      "downloaded": 288,
      "son": 289,
      "Nor": 290,
      "art": 291,
      "ha": 292,
      "pay": 293,
      "ning": 294,
      "ye": 295,
      "Ping": 296,
      "LS": 297,
      "TLS": 298,
      "comple": 299,
      "handshake": 300,
      "completed": 301,
      "no": 302,
      "tec": 303,
      "ET": 304,
      "GET": 305,
      "ht": 306,
      "ml": 307,
      "index": 308,
      "html": 309,
      "mail": 310,
      "trol": 311,
      "rec": 312,
      "page": 313,
      "ery": 314,
      "control": 315,
      "fer": 316,
      "flow": 317,
      "Normal": 318,
      "ecu": 319,
      "wor": 320,
      "query": 321,
      "goog": 322,
      "google": 323,
      "force": 324,
      "execu": 325,
      "table": 326,
      "wi": 327,
      "Com": 328,
      "Un": 329,
      "nt": 330,
      "ill": 331,
      "ally": 332,
      "out": 333,
      "self": 334,
      "Do": 335,
      "ion": 336,
      "thing": 337,
      "gn": 338,
      "arti": 339,
      "id": 340,
      "Comm": 341,
      "ant": 342,
      "act": 343,
      "am": 344,
      "XSS": 345,
      "load": 346,
      "injected": 347,
      "payload": 348,
      "ice": 349,
      "Phi": 350,
      "access": 351,
      "shing": 352,
      "Phishing": 353,
      "pu": 354,
      "sk": 355,
      "Command": 356,
      "bo": 357,
      "ized": 358,
      "authorized": 359,
      "Unauthorized": 360,
      "ection": 361,
      "QL": 362,
      "SQL": 363,
      "injection": 364,
      "Port": 365,
      "anning": 366,
      "detec": 367,
      "scanning": 368,
      "detected": 369,
      "DDo": 370,
      "ated": 371,
      "initi": 372,
      "flood": 373,
      "DDoS": 374,
      "initiated": 375,
      "Rans": 376,
      "omwa": 377,
      "download": 378,
      "Ransomwa": 379,
      "Ransomware": 380,
      "fo": 381,
      "so": 382,
      "Rever": 383,
      "nection": 384,
      "shell": 385,
      "connection": 386,
      "Reverse": 387,
      "we": 388,
      "Mal": 389,
      "trans": 390,
      "ferred": 391,
      "executable": 392,
      "Malicious": 393,
      "transferred": 394,
      "Bru": 395,
      "IP": 396,
      "ea": 397,
      "susp": 398,
      "Brute": 399,
      "suspicious": 400,
      "fi": 401,
      "ay": 402,
      "some": 403,
      "bu": 404,
      "ld": 405,
      "du": 406,
      "ture": 407,
      "ong": 408,
      "ste": 409,
      "ffer": 410,
      "ho": 411,
      "ty": 412,
      "arly": 413,
      "ction": 414,
      "end": 415,
      "tain": 416,
      "reat": 417,
      "ron": 418,
      "up": 419,
      "und": 420,
      "ugh": 421,
      "ial": 422,
      "bl": 423,
      "cul": 424,
      "rea": 425,
      "any": 426,
      "every": 427,
      "pla": 428,
      "cou": 429,
      "inter": 430,
      "fa": 431,
      "gro": 432,
      "pol": 433,
      "col": 434,
      "fin": 435,
      "96": 436,
      "ser": 437,
      "63": 438,
      "120": 439,
      "202": 440,
      "192": 441,
      "79": 442,
      "88": 443,
      "189": 444,
      "45": 445,
      "155": 446,
      "26": 447,
      "Re": 448,
      "48": 449,
      "171": 450,
      "151": 451,
      "169": 452,
      "86": 453,
      "49": 454,
      "207": 455,
      "209": 456,
      "179": 457,
      "57": 458,
      "117": 459,
      "132": 460,
      "134": 461,
      "144": 462,
      "27": 463,
      "64": 464,
      "39": 465,
      "99": 466,
      "128": 467,
      "204": 468,
      "191": 469,
      "85": 470,
      "98": 471,
      "173": 472,
      "161": 473,
      "93": 474,
      "193": 475,
      "123": 476,
      "129": 477,
      "112": 478,
      "60": 479,
      "121": 480,
      "40": 481,
      "214": 482,
      "203": 483,
      "194": 484,
      "148": 485,
      "47": 486,
      "130": 487,
      "199": 488,
      "145": 489,
      "102": 490,
      "37": 491,
      "201": 492,
      "33": 493,
      "116": 494,
      "208": 495,
      "140": 496,
      "195": 497,
      "91": 498,
      "217": 499,
      "113": 500,
      "28": 501,
      "51": 502,
      "153": 503,
      "149": 504,
      "109": 505,
      "220": 506,
      "136": 507,
      "168": 508,
      "125": 509,
      "38": 510,
      "81": 511,
      "206": 512,
      "157": 513,
      "42": 514,
      "36": 515,
      "55": 516,
      "131": 517,
      "137": 518,
      "184": 519,
      "196": 520,
      "103": 521,
      "41": 522,
      "114": 523,
      "53": 524,
      "174": 525,
      "158": 526,
      "213": 527,
      "65": 528,
      "133": 529,
      "198": 530,
      "221": 531,
      "21": 532,
      "215": 533,
      "70": 534,
      "89": 535,
      "200": 536,
      "178": 537,
      "159": 538,
      "46": 539,
      "170": 540,
      "54": 541,
      "165": 542,
      "58": 543,
      "75": 544,
      "84": 545,
      "ud": 546,
      "205": 547,
      "135": 548,
      "87": 549,
      "74": 550,
      "95": 551,
      "166": 552,
      "107": 553,
      "185": 554,
      "126": 555,
      "90": 556,
      "104": 557,
      "124": 558,
      "52": 559,
      "182": 560,
      "216": 561,
      "181": 562,
      "66": 563,
      "197": 564,
      "175": 565,
      "101": 566,
      "73": 567,
      "118": 568,
      "32": 569,
      "177": 570,
      "188": 571,
      "167": 572,
      "186": 573,
      "56": 574,
      "71": 575,
      "223": 576,
      "150": 577,
      "154": 578,
      "187": 579,
      "119": 580,
      "190": 581,
      "210": 582,
      "59": 583,
      "152": 584,
      "92": 585,
      "156": 586,
      "222": 587,
      "139": 588,
      "142": 589,
      "172": 590,
      "122": 591,
      "29": 592,
      "218": 593,
      "108": 594,
      "110": 595,
      "211": 596,
      "147": 597,
      "111": 598,
      "219": 599,
      "160": 600,
      "105": 601,
      "67": 602,
      "68": 603,
      "97": 604,
      "143": 605,
      "163": 606,
      "77": 607,
      "83": 608,
      "141": 609,
      "183": 610,
      "50": 611,
      "212": 612,
      "80": 613,
      "94": 614,
      "44": 615,
      "164": 616,
      "180": 617,
      "35": 618,
      "76": 619,
      "30": 620,
      "61": 621,
      "43": 622,
      "62": 623,
      "72": 624,
      "176": 625,
      "78": 626,
      "106": 627,
      "138": 628,
      "146": 629,
      "115": 630,
      "82": 631,
      "31": 632,
      "ie": 633,
      "162": 634,
      "34": 635,
      "ry": 636,
      "cial": 637,
      "69": 638,
      "ough": 639,
      "over": 640,
      "ild": 641,
      "ber": 642,
      "mber": 643,
      "ssion": 644,
      "100": 645,
      "ame": 646,
      "pe": 647,
      "ack": 648,
      "enti": 649,
      "ose": 650,
      "ect": 651,
      "ven": 652,
      "spon": 653,
      "gy": 654,
      "ody": 655,
      "ust": 656,
      "ern": 657,
      "pul": 658,
      "pare": 659,
      "jo": 660,
      "ok": 661,
      "work": 662,
      "ten": 663,
      "side": 664,
      "get": 665,
      "vie": 666,
      "way": 667,
      "cle": 668,
      "ite": 669,
      "body": 670,
      "low": 671,
      "her": 672,
      "sit": 673,
      "main": 674,
      "other": 675,
      "tur": 676,
      "read": 677,
      "et": 678,
      "if": 679,
      "imp": 680,
      "ener": 681,
      "now": 682,
      "ater": 683,
      "nation": 684,
      "mil": 685,
      "do": 686,
      "spec": 687,
      "cur": 688,
      "vo": 689,
      "parti": 690,
      "sign": 691,
      "disc": 692,
      "real": 693,
      "with": 694,
      "cho": 695,
      "stand": 696,
      "inc": 697,
      "sto": 698,
      "see": 699,
      "new": 700,
      "sou": 701,
      "produ": 702,
      "respon": 703,
      "part": 704,
      "thro": 705,
      "237": 706,
      "232": 707,
      "127": 708,
      "242": 709,
      "252": 710,
      "233": 711,
      "ain": 712,
      "243": 713,
      "231": 714,
      "De": 715,
      "247": 716,
      "253": 717,
      "234": 718,
      "241": 719,
      "249": 720,
      "236": 721,
      "254": 722,
      "229": 723,
      "250": 724,
      "255": 725,
      "240": 726,
      "225": 727,
      "248": 728,
      "251": 729,
      "245": 730,
      "244": 731,
      "227": 732,
      "246": 733,
      "224": 734,
      "226": 735,
      "235": 736,
      "238": 737,
      "ist": 738,
      "230": 739,
      "239": 740,
      "ct": 741,
      "228": 742,
      "ould": 743,
      "ner": 744,
      "ress": 745,
      "ive": 746,
      "ign": 747,
      "ize": 748,
      "ick": 749,
      "ord": 750,
      "ep": 751,
      "vel": 752,
      "lion": 753,
      "tory": 754,
      "ory": 755,
      "tice": 756,
      "ical": 757,
      "pport": 758,
      "tive": 759,
      "lop": 760,
      "velop": 761,
      "vent": 762,
      "viron": 763,
      "vironment": 764,
      "ican": 765,
      "ense": 766,
      "ene": 767,
      "ility": 768,
      "moc": 769,
      "sion": 770,
      "ult": 771,
      "cal": 772,
      "ange": 773,
      "lection": 774,
      "old": 775,
      "rive": 776,
      "arge": 777,
      "ll": 778,
      "Mr": 779,
      "jor": 780,
      "ffect": 781,
      "ck": 782,
      "ertain": 783,
      "ich": 784,
      "his": 785,
      "ave": 786,
      "app": 787,
      "min": 788,
      "ring": 789,
      "fore": 790,
      "ank": 791,
      "ready": 792,
      "sy": 793,
      "add": 794,
      "able": 795,
      "atter": 796,
      "yer": 797,
      "enter": 798,
      "ital": 799,
      "sure": 800,
      "tal": 801,
      "head": 802,
      "gu": 803,
      "alth": 804,
      "most": 805,
      "atch": 806,
      "In": 807,
      "econ": 808,
      "ific": 809,
      "ip": 810,
      "unity": 811,
      "adi": 812,
      "ward": 813,
      "may": 814,
      "spa": 815,
      "stud": 816,
      "rong": 817,
      "op": 818,
      "lass": 819,
      "view": 820,
      "form": 821,
      "int": 822,
      "try": 823,
      "member": 824,
      "ience": 825,
      "term": 826,
      "present": 827,
      "lead": 828,
      "lose": 829,
      "again": 830,
      "lan": 831,
      "publ": 832,
      "air": 833,
      "face": 834,
      "even": 835,
      "move": 836,
      "ary": 837,
      "interest": 838,
      "turn": 839,
      "mon": 840,
      "rate": 841,
      "ject": 842,
      "time": 843,
      "grow": 844,
      "bab": 845,
      "national": 846,
      "particul": 847,
      "how": 848,
      "iss": 849,
      "state": 850,
      "teach": 851,
      "co": 852,
      "mple": 853,
      "gue": 854,
      "ima": 855,
      "let": 856,
      "politi": 857,
      "develop": 858,
      "econom": 859,
      "offic": 860,
      "law": 861,
      "direc": 862,
      "cus": 863,
      "fir": 864,
      "popul": 865,
      "your": 866,
      "environment": 867,
      "night": 868,
      "discu": 869,
      "who": 870,
      "them": 871,
      "him": 872,
      "as": 873,
      "ph": 874,
      "care": 875,
      "deci": 876,
      "person": 877,
      "through": 878,
      "meet": 879,
      "whi": 880,
      "day": 881,
      "car": 882,
      "west": 883,
      "posi": 884,
      "rela": 885,
      "exper": 886,
      "under": 887,
      "use": 888,
      "cour": 889,
      "build": 890,
      "certain": 891,
      "incl": 892,
      "bec": 893,
      "bet": 894,
      "nat": 895,
      "gener": 896,
      "mar": 897,
      "major": 898,
      "of": 899,
      "differ": 900,
      "happ": 901,
      "nor": 902,
      "recent": 903,
      "wind": 904,
      "hu": 905,
      "sea": 906,
      "feel": 907,
      "av": 908,
      "manage": 909,
      "my": 910,
      "sing": 911,
      "you": 912,
      "off": 913,
      "know": 914,
      "treat": 915,
      "agree": 916,
      "profe": 917,
      "ear": 918,
      "Th": 919,
      "ut": 920,
      "ot": 921,
      "very": 922,
      "ast": 923,
      "Pro": 924,
      "im": 925,
      "ide": 926,
      "ish": 927,
      "nd": 928,
      "gree": 929,
      "ase": 930,
      "ire": 931,
      "ig": 932,
      "uch": 933,
      "Democ": 934,
      "port": 935,
      "itu": 936,
      "dd": 937,
      "outh": 938,
      "ause": 939,
      "illion": 940,
      "eat": 941,
      "mercial": 942,
      "rent": 943,
      "ore": 944,
      "ng": 945,
      "arac": 946,
      "aracter": 947,
      "cture": 948,
      "ality": 949,
      "each": 950,
      "ove": 951,
      "onder": 952,
      "oldi": 953,
      "iece": 954,
      "oldier": 955,
      "bility": 956,
      "is": 957,
      "lish": 958,
      "ablish": 959,
      "ise": 960,
      "puter": 961,
      "here": 962,
      "long": 963,
      "augh": 964,
      "wer": 965,
      "guage": 966,
      "stem": 967,
      "ek": 968,
      "gge": 969,
      "ggest": 970,
      "orning": 971,
      "sten": 972,
      "round": 973,
      "ower": 974,
      "ration": 975,
      "rug": 976,
      "istration": 977,
      "ickly": 978,
      "Mrs": 979,
      "ministration": 980,
      "fy": 981,
      "imal": 982,
      "oment": 983,
      "entify": 984,
      "ior": 985,
      "eral": 986,
      "enior": 987,
      "ata": 988,
      "fficult": 989,
      "ederal": 990,
      "joy": 991,
      "ctor": 992,
      "kel": 993,
      "kely": 994,
      "sical": 995,
      "ysical": 996,
      "dge": 997,
      "sually": 998,
      "ually": 999,
      "icate": 1000,
      "gether": 1001,
      "tin": 1002,
      "ute": 1003,
      "eck": 1004,
      "tinue": 1005,
      "riend": 1006,
      "cs": 1007,
      "gra": 1008,
      "mmer": 1009,
      "wn": 1010,
      "ffort": 1011,
      "gram": 1012,
      "dition": 1013,
      "urpo": 1014,
      "tect": 1015,
      "Republ": 1016,
      "urpose": 1017,
      "Republican": 1018,
      "ross": 1019,
      "lear": 1020,
      "fense": 1021,
      "ount": 1022,
      "rat": 1023,
      "ude": 1024,
      "ech": 1025,
      "Democrat": 1026,
      "ither": 1027,
      "rac": 1028,
      "loye": 1029,
      "mploye": 1030,
      "uring": 1031,
      "ractice": 1032,
      "mployee": 1033,
      "cy": 1034,
      "tle": 1035,
      "ining": 1036,
      "ency": 1037,
      "ittle": 1038,
      "alk": 1039,
      "stitu": 1040,
      "gine": 1041,
      "stitution": 1042,
      "mory": 1043,
      "ission": 1044,
      "icture": 1045,
      "actly": 1046,
      "rease": 1047,
      "vil": 1048,
      "ves": 1049,
      "selves": 1050,
      "ume": 1051,
      "vol": 1052,
      "sever": 1053,
      "ssume": 1054,
      "ship": 1055,
      "eld": 1056,
      "volve": 1057,
      "several": 1058,
      "Cong": 1059,
      "ntry": 1060,
      "zen": 1061,
      "forman": 1062,
      "begin": 1063,
      "spaper": 1064,
      "Congress": 1065,
      "formance": 1066,
      "stment": 1067,
      "vestment": 1068,
      "nize": 1069,
      "umber": 1070,
      "rop": 1071,
      "levi": 1072,
      "ognize": 1073,
      "void": 1074,
      "levision": 1075,
      "pt": 1076,
      "cept": 1077,
      "scri": 1078,
      "scribe": 1079,
      "az": 1080,
      "fit": 1081,
      "ible": 1082,
      "ppro": 1083,
      "ssible": 1084,
      "enefit": 1085,
      "azine": 1086,
      "pproach": 1087,
      "gan": 1088,
      "entr": 1089,
      "perty": 1090,
      "ization": 1091,
      "ganization": 1092,
      "entral": 1093,
      "mile": 1094,
      "ink": 1095,
      "sumer": 1096,
      "reate": 1097,
      "arious": 1098,
      "commercial": 1099,
      "ollow": 1100,
      "mera": 1101,
      "ways": 1102,
      "ference": 1103,
      "pportunity": 1104,
      "too": 1105,
      "laim": 1106,
      "dience": 1107,
      "achine": 1108,
      "plain": 1109,
      "enge": 1110,
      "del": 1111,
      "ural": 1112,
      "ager": 1113,
      "allenge": 1114,
      "cern": 1115,
      "pany": 1116,
      "alue": 1117,
      "ily": 1118,
      "amily": 1119,
      "cord": 1120,
      "ially": 1121,
      "mit": 1122,
      "pant": 1123,
      "ancial": 1124,
      "ket": 1125,
      "rite": 1126,
      "cipant": 1127,
      "specially": 1128,
      "address": 1129,
      "cording": 1130,
      "Amer": 1131,
      "dence": 1132,
      "uture": 1133,
      "tiful": 1134,
      "lege": 1135,
      "actor": 1136,
      "vidence": 1137,
      "autiful": 1138,
      "hair": 1139,
      "American": 1140,
      "afe": 1141,
      "enly": 1142,
      "sider": 1143,
      "ween": 1144,
      "entist": 1145,
      "ere": 1146,
      "usic": 1147,
      "student": 1148,
      "ople": 1149,
      "tree": 1150,
      "tru": 1151,
      "andid": 1152,
      "ortant": 1153,
      "eak": 1154,
      "andidate": 1155,
      "fter": 1156,
      "tty": 1157,
      "ream": 1158,
      "tic": 1159,
      "mall": 1160,
      "indeed": 1161,
      "ratic": 1162,
      "hou": 1163,
      "milar": 1164,
      "uff": 1165,
      "elp": 1166,
      "vide": 1167,
      "termine": 1168,
      "fle": 1169,
      "icy": 1170,
      "she": 1171,
      "character": 1172,
      "rule": 1173,
      "ies": 1174,
      "attern": 1175,
      "flect": 1176,
      "veal": 1177,
      "usine": 1178,
      "rice": 1179,
      "undred": 1180,
      "usiness": 1181,
      "nment": 1182,
      "uble": 1183,
      "ention": 1184,
      "though": 1185,
      "set": 1186,
      "high": 1187,
      "riage": 1188,
      "oil": 1189,
      "pect": 1190,
      "rich": 1191,
      "spital": 1192,
      "arden": 1193,
      "irl": 1194,
      "dia": 1195,
      "ft": 1196,
      "pital": 1197,
      "piece": 1198,
      "vity": 1199,
      "tivity": 1200,
      "tail": 1201,
      "peration": 1202,
      "stead": 1203,
      "front": 1204,
      "forma": 1205,
      "vior": 1206,
      "atever": 1207,
      "havior": 1208,
      "formation": 1209,
      "stru": 1210,
      "tional": 1211,
      "estion": 1212,
      "common": 1213,
      "uding": 1214,
      "aditional": 1215,
      "structure": 1216,
      "dle": 1217,
      "inner": 1218,
      "iddle": 1219,
      "tural": 1220,
      "soldier": 1221,
      "reen": 1222,
      "orn": 1223,
      "thod": 1224,
      "entur": 1225,
      "thern": 1226,
      "oney": 1227,
      "upon": 1228,
      "against": 1229,
      "aughter": 1230,
      "entury": 1231,
      "ahead": 1232,
      "ccur": 1233,
      "pick": 1234,
      "another": 1235,
      "arm": 1236,
      "type": 1237,
      "rit": 1238,
      "logy": 1239,
      "sibility": 1240,
      "computer": 1241,
      "cation": 1242,
      "health": 1243,
      "nology": 1244,
      "interview": 1245,
      "times": 1246,
      "riter": 1247,
      "ail": 1248,
      "back": 1249,
      "win": 1250,
      "yon": 1251,
      "ought": 1252,
      "network": 1253,
      "listen": 1254,
      "ailable": 1255,
      "yond": 1256,
      "ample": 1257,
      "dent": 1258,
      "ssage": 1259,
      "ilm": 1260,
      "suggest": 1261,
      "elie": 1262,
      "ney": 1263,
      "sident": 1264,
      "spite": 1265,
      "ousand": 1266,
      "difficult": 1267,
      "torney": 1268,
      "choose": 1269,
      "elieve": 1270,
      "early": 1271,
      "oman": 1272,
      "establish": 1273,
      "raw": 1274,
      "language": 1275,
      "Me": 1276,
      "band": 1277,
      "bject": 1278,
      "wonder": 1279,
      "ysi": 1280,
      "almost": 1281,
      "alysi": 1282,
      "usband": 1283,
      "odern": 1284,
      "bably": 1285,
      "politics": 1286,
      "alysis": 1287,
      "before": 1288,
      "everyone": 1289,
      "morning": 1290,
      "uation": 1291,
      "yard": 1292,
      "tel": 1293,
      "test": 1294,
      "ledge": 1295,
      "seat": 1296,
      "sport": 1297,
      "travel": 1298,
      "beat": 1299,
      "answer": 1300,
      "could": 1301,
      "situation": 1302,
      "door": 1303,
      "data": 1304,
      "ety": 1305,
      "ince": 1306,
      "enjoy": 1307,
      "should": 1308,
      "cessary": 1309,
      "ciety": 1310,
      "indicate": 1311,
      "eace": 1312,
      "ssional": 1313,
      "maintain": 1314,
      "maybe": 1315,
      "eye": 1316,
      "lder": 1317,
      "much": 1318,
      "ze": 1319,
      "til": 1320,
      "arch": 1321,
      "search": 1322,
      "administration": 1323,
      "size": 1324,
      "keep": 1325,
      "divi": 1326,
      "yes": 1327,
      "dual": 1328,
      "chool": 1329,
      "adio": 1330,
      "dividual": 1331,
      "moment": 1332,
      "lood": 1333,
      "ability": 1334,
      "realize": 1335,
      "ificant": 1336,
      "discussion": 1337,
      "drug": 1338,
      "those": 1339,
      "ceive": 1340,
      "quickly": 1341,
      "rime": 1342,
      "without": 1343,
      "still": 1344,
      "ark": 1345,
      "deca": 1346,
      "share": 1347,
      "million": 1348,
      "decade": 1349,
      "purpose": 1350,
      "run": 1351,
      "uce": 1352,
      "wall": 1353,
      "rother": 1354,
      "alf": 1355,
      "across": 1356,
      "forget": 1357,
      "require": 1358,
      "whom": 1359,
      "serve": 1360,
      "doctor": 1361,
      "system": 1362,
      "interesting": 1363,
      "lant": 1364,
      "tomer": 1365,
      "deal": 1366,
      "program": 1367,
      "urch": 1368,
      "everybody": 1369,
      "development": 1370,
      "affect": 1371,
      "federal": 1372,
      "power": 1373,
      "rove": 1374,
      "tonight": 1375,
      "summer": 1376,
      "anyone": 1377,
      "product": 1378,
      "either": 1379,
      "institution": 1380,
      "top": 1381,
      "town": 1382,
      "itch": 1383,
      "support": 1384,
      "condition": 1385,
      "lay": 1386,
      "itchen": 1387,
      "fill": 1388,
      "must": 1389,
      "paign": 1390,
      "entire": 1391,
      "tend": 1392,
      "ah": 1393,
      "bar": 1394,
      "fly": 1395,
      "fall": 1396,
      "practice": 1397,
      "story": 1398,
      "tack": 1399,
      "yeah": 1400,
      "identify": 1401,
      "east": 1402,
      "animal": 1403,
      "light": 1404,
      "notice": 1405,
      "actually": 1406,
      "box": 1407,
      "board": 1408,
      "everything": 1409,
      "job": 1410,
      "positive": 1411,
      "base": 1412,
      "can": 1413,
      "during": 1414,
      "find": 1415,
      "mouth": 1416,
      "wrong": 1417,
      "ance": 1418,
      "exactly": 1419,
      "news": 1420,
      "physical": 1421,
      "learn": 1422,
      "gion": 1423,
      "give": 1424,
      "hind": 1425,
      "reach": 1426,
      "once": 1427,
      "strate": 1428,
      "pass": 1429,
      "trade": 1430,
      "process": 1431,
      "response": 1432,
      "strategy": 1433,
      "little": 1434,
      "opportunity": 1435,
      "charge": 1436,
      "last": 1437,
      "likely": 1438,
      "more": 1439,
      "prepare": 1440,
      "prevent": 1441,
      "article": 1442,
      "couple": 1443,
      "count": 1444,
      "clear": 1445,
      "by": 1446,
      "eight": 1447,
      "effort": 1448,
      "friend": 1449,
      "usually": 1450,
      "would": 1451,
      "station": 1452,
      "leg": 1453,
      "child": 1454,
      "case": 1455,
      "wait": 1456,
      "soon": 1457,
      "weight": 1458,
      "reak": 1459,
      "south": 1460,
      "director": 1461,
      "level": 1462,
      "leave": 1463,
      "than": 1464,
      "local": 1465,
      "defense": 1466,
      "ssor": 1467,
      "step": 1468,
      "particular": 1469,
      "mission": 1470,
      "same": 1471,
      "accept": 1472,
      "protect": 1473,
      "about": 1474,
      "artist": 1475,
      "finish": 1476,
      "join": 1477,
      "seek": 1478,
      "newspaper": 1479,
      "population": 1480,
      "career": 1481,
      "certainly": 1482,
      "benefit": 1483,
      "senior": 1484,
      "together": 1485,
      "report": 1486,
      "alone": 1487,
      "thus": 1488,
      "continue": 1489,
      "key": 1490,
      "full": 1491,
      "clearly": 1492,
      "history": 1493,
      "particularly": 1494,
      "imagine": 1495,
      "throughout": 1496,
      "include": 1497,
      "bit": 1498,
      "xt": 1499,
      "television": 1500,
      "show": 1501,
      "next": 1502,
      "property": 1503,
      "vice": 1504,
      "agency": 1505,
      "theory": 1506,
      "yourself": 1507,
      "ask": 1508,
      "after": 1509,
      "bill": 1510,
      "fact": 1511,
      "involve": 1512,
      "that": 1513,
      "itary": 1514,
      "action": 1515,
      "check": 1516,
      "seem": 1517,
      "talk": 1518,
      "because": 1519,
      "cover": 1520,
      "center": 1521,
      "hit": 1522,
      "picture": 1523,
      "describe": 1524,
      "visit": 1525,
      "foot": 1526,
      "fish": 1527,
      "play": 1528,
      "stop": 1529,
      "production": 1530,
      "minute": 1531,
      "foreign": 1532,
      "study": 1533,
      "firm": 1534,
      "just": 1535,
      "mean": 1536,
      "risk": 1537,
      "list": 1538,
      "when": 1539,
      "authority": 1540,
      "both": 1541,
      "black": 1542,
      "increase": 1543,
      "open": 1544,
      "idea": 1545,
      "investment": 1546,
      "deep": 1547,
      "near": 1548,
      "spring": 1549,
      "movement": 1550,
      "economic": 1551,
      "approach": 1552,
      "cut": 1553,
      "drop": 1554,
      "name": 1555,
      "toward": 1556,
      "suffer": 1557,
      "simp": 1558,
      "compare": 1559,
      "science": 1560,
      "race": 1561,
      "song": 1562,
      "impact": 1563,
      "appear": 1564,
      "officer": 1565,
      "themselves": 1566,
      "simply": 1567,
      "will": 1568,
      "watch": 1569,
      "role": 1570,
      "total": 1571,
      "today": 1572,
      "stay": 1573,
      "laugh": 1574,
      "bed": 1575,
      "few": 1576,
      "image": 1577,
      "number": 1578,
      "ps": 1579,
      "tionship": 1580,
      "according": 1581,
      "concern": 1582,
      "spend": 1583,
      "take": 1584,
      "owner": 1585,
      "training": 1586,
      "civil": 1587,
      "haps": 1588,
      "worry": 1589,
      "discover": 1590,
      "letter": 1591,
      "economy": 1592,
      "official": 1593,
      "whole": 1594,
      "relationship": 1595,
      "asure": 1596,
      "create": 1597,
      "employee": 1598,
      "great": 1599,
      "kind": 1600,
      "war": 1601,
      "trial": 1602,
      "trip": 1603,
      "forward": 1604,
      "measure": 1605,
      "consumer": 1606,
      "beautiful": 1607,
      "possible": 1608,
      "aterial": 1609,
      "growth": 1610,
      "decide": 1611,
      "while": 1612,
      "best": 1613,
      "drive": 1614,
      "machine": 1615,
      "safe": 1616,
      "wo": 1617,
      "challenge": 1618,
      "performance": 1619,
      "manager": 1620,
      "fire": 1621,
      "blue": 1622,
      "worker": 1623,
      "bate": 1624,
      "home": 1625,
      "lt": 1626,
      "room": 1627,
      "organization": 1628,
      "thir": 1629,
      "cell": 1630,
      "sudd": 1631,
      "sult": 1632,
      "tax": 1633,
      "there": 1634,
      "amount": 1635,
      "something": 1636,
      "place": 1637,
      "herself": 1638,
      "partner": 1639,
      "between": 1640,
      "third": 1641,
      "suddenly": 1642,
      "always": 1643,
      "tizen": 1644,
      "memory": 1645,
      "method": 1646,
      "conference": 1647,
      "citizen": 1648,
      "note": 1649,
      "group": 1650,
      "party": 1651,
      "leader": 1652,
      "first": 1653,
      "course": 1654,
      "general": 1655,
      "city": 1656,
      "line": 1657,
      "least": 1658,
      "change": 1659,
      "scene": 1660,
      "what": 1661,
      "book": 1662,
      "easy": 1663,
      "field": 1664,
      "country": 1665,
      "current": 1666,
      "environmental": 1667,
      "assume": 1668,
      "far": 1669,
      "ientist": 1670,
      "mind": 1671,
      "order": 1672,
      "company": 1673,
      "capital": 1674,
      "scientist": 1675,
      "player": 1676,
      "sound": 1677,
      "decision": 1678,
      "personal": 1679,
      "often": 1680,
      "mention": 1681,
      "various": 1682,
      "score": 1683,
      "explain": 1684,
      "point": 1685,
      "outside": 1686,
      "financial": 1687,
      "expert": 1688,
      "avoid": 1689,
      "event": 1690,
      "game": 1691,
      "hold": 1692,
      "music": 1693,
      "small": 1694,
      "write": 1695,
      "represent": 1696,
      "team": 1697,
      "already": 1698,
      "threat": 1699,
      "think": 1700,
      "loss": 1701,
      "argue": 1702,
      "exist": 1703,
      "audience": 1704,
      "why": 1705,
      "model": 1706,
      "hear": 1707,
      "rather": 1708,
      "above": 1709,
      "not": 1710,
      "wish": 1711,
      "policy": 1712,
      "cold": 1713,
      "space": 1714,
      "month": 1715,
      "teacher": 1716,
      "popular": 1717,
      "white": 1718,
      "human": 1719,
      "hour": 1720,
      "resource": 1721,
      "enough": 1722,
      "quality": 1723,
      "late": 1724,
      "task": 1725,
      "social": 1726,
      "sometimes": 1727,
      "participant": 1728,
      "direction": 1729,
      "experience": 1730,
      "market": 1731,
      "billion": 1732,
      "offer": 1733,
      "rface": 1734,
      "smile": 1735,
      "surface": 1736,
      "past": 1737,
      "six": 1738,
      "right": 1739,
      "these": 1740,
      "recognize": 1741,
      "baby": 1742,
      "ball": 1743,
      "dical": 1744,
      "four": 1745,
      "send": 1746,
      "yle": 1747,
      "return": 1748,
      "style": 1749,
      "medical": 1750,
      "camera": 1751,
      "provide": 1752,
      "police": 1753,
      "especially": 1754,
      "might": 1755,
      "its": 1756,
      "nearly": 1757,
      "boy": 1758,
      "hospital": 1759,
      "pull": 1760,
      "store": 1761,
      "option": 1762,
      "carry": 1763,
      "understand": 1764,
      "difference": 1765,
      "happy": 1766,
      "bag": 1767,
      "close": 1768,
      "follow": 1769,
      "tough": 1770,
      "reflect": 1771,
      "along": 1772,
      "good": 1773,
      "movie": 1774,
      "heav": 1775,
      "record": 1776,
      "executive": 1777,
      "buy": 1778,
      "stock": 1779,
      "heavy": 1780,
      "central": 1781,
      "future": 1782,
      "range": 1783,
      "value": 1784,
      "rest": 1785,
      "arrive": 1786,
      "democ": 1787,
      "traditional": 1788,
      "relate": 1789,
      "court": 1790,
      "nature": 1791,
      "natural": 1792,
      "democratic": 1793,
      "ago": 1794,
      "bank": 1795,
      "candidate": 1796,
      "gazine": 1797,
      "hundred": 1798,
      "land": 1799,
      "ntion": 1800,
      "analysis": 1801,
      "this": 1802,
      "seven": 1803,
      "ssure": 1804,
      "quite": 1805,
      "magazine": 1806,
      "speak": 1807,
      "life": 1808,
      "attention": 1809,
      "pressure": 1810,
      "fast": 1811,
      "color": 1812,
      "collection": 1813,
      "building": 1814,
      "majority": 1815,
      "claim": 1816,
      "dget": 1817,
      "rock": 1818,
      "else": 1819,
      "expect": 1820,
      "where": 1821,
      "push": 1822,
      "five": 1823,
      "budget": 1824,
      "issue": 1825,
      "fight": 1826,
      "green": 1827,
      "secur": 1828,
      "wear": 1829,
      "father": 1830,
      "reality": 1831,
      "western": 1832,
      "security": 1833,
      "aff": 1834,
      "price": 1835,
      "sense": 1836,
      "tell": 1837,
      "stuff": 1838,
      "staff": 1839,
      "former": 1840,
      "example": 1841,
      "whatever": 1842,
      "trouble": 1843,
      "pretty": 1844,
      "nothing": 1845,
      "skill": 1846,
      "somebody": 1847,
      "international": 1848,
      "specific": 1849,
      "within": 1850,
      "Ch": 1851,
      "call": 1852,
      "century": 1853,
      "dream": 1854,
      "dinner": 1855,
      "election": 1856,
      "family": 1857,
      "gas": 1858,
      "matter": 1859,
      "well": 1860,
      "thought": 1861,
      "thousand": 1862,
      "degree": 1863,
      "admit": 1864,
      "simple": 1865,
      "probably": 1866,
      "goal": 1867,
      "college": 1868,
      "vote": 1869,
      "guy": 1870,
      "statement": 1871,
      "business": 1872,
      "factor": 1873,
      "help": 1874,
      "into": 1875,
      "remain": 1876,
      "stage": 1877,
      "less": 1878,
      "similar": 1879,
      "prove": 1880,
      "live": 1881,
      "anything": 1882,
      "important": 1883,
      "special": 1884,
      "coach": 1885,
      "phone": 1886,
      "meeting": 1887,
      "TV": 1888,
      "dog": 1889,
      "occur": 1890,
      "pattern": 1891,
      "lot": 1892,
      "look": 1893,
      "never": 1894,
      "their": 1895,
      "culture": 1896,
      "series": 1897,
      "marriage": 1898,
      "different": 1899,
      "happen": 1900,
      "young": 1901,
      "treatment": 1902,
      "believe": 1903,
      "gure": 1904,
      "ster": 1905,
      "short": 1906,
      "paint": 1907,
      "sister": 1908,
      "consider": 1909,
      "wide": 1910,
      "skin": 1911,
      "figure": 1912,
      "serious": 1913,
      "others": 1914,
      "painting": 1915,
      "daughter": 1916,
      "evidence": 1917,
      "free": 1918,
      "writer": 1919,
      "tech": 1920,
      "also": 1921,
      "stree": 1922,
      "determine": 1923,
      "question": 1924,
      "indust": 1925,
      "final": 1926,
      "house": 1927,
      "technology": 1928,
      "street": 1929,
      "industry": 1930,
      "away": 1931,
      "modern": 1932,
      "school": 1933,
      "ground": 1934,
      "people": 1935,
      "parent": 1936,
      "political": 1937,
      "better": 1938,
      "card": 1939,
      "cup": 1940,
      "effect": 1941,
      "husband": 1942,
      "kid": 1943,
      "want": 1944,
      "inside": 1945,
      "information": 1946,
      "remember": 1947,
      "despite": 1948,
      "media": 1949,
      "edge": 1950,
      "reason": 1951,
      "cost": 1952,
      "lawyer": 1953,
      "discuss": 1954,
      "born": 1955,
      "gun": 1956,
      "garden": 1957,
      "middle": 1958,
      "reveal": 1959,
      "need": 1960,
      "necessary": 1961,
      "cause": 1962,
      "behavior": 1963,
      "generation": 1964,
      "truth": 1965,
      "big": 1966,
      "radio": 1967,
      "since": 1968,
      "woman": 1969,
      "left": 1970,
      "thank": 1971,
      "secon": 1972,
      "activity": 1973,
      "such": 1974,
      "whose": 1975,
      "position": 1976,
      "second": 1977,
      "glass": 1978,
      "instead": 1979,
      "itself": 1980,
      "subject": 1981,
      "until": 1982,
      "they": 1983,
      "raise": 1984,
      "year": 1985,
      "wife": 1986,
      "feeling": 1987,
      "available": 1988,
      "area": 1989,
      "operation": 1990,
      "say": 1991,
      "star": 1992,
      "strong": 1993,
      "detail": 1994,
      "beyond": 1995,
      "respond": 1996,
      "himself": 1997,
      "including": 1998,
      "become": 1999,
      "crime": 2000,
      "none": 2001,
      "nice": 2002,
      "section": 2003,
      "society": 2004,
      "apply": 2005,
      "management": 2006,
      "later": 2007,
      "large": 2008,
      "miss": 2009,
      "really": 2010,
      "adult": 2011,
      "president": 2012,
      "huge": 2013,
      "gious": 2014,
      "reli": 2015,
      "vernment": 2016,
      "government": 2017,
      "world": 2018,
      "focus": 2019,
      "north": 2020,
      "knowledge": 2021,
      "religious": 2022,
      "bring": 2023,
      "agent": 2024,
      "poor": 2025,
      "voice": 2026,
      "southern": 2027,
      "window": 2028,
      "peace": 2029,
      "individual": 2030,
      "only": 2031,
      "design": 2032,
      "have": 2033,
      "cultural": 2034,
      "responsibility": 2035,
      "myself": 2036,
      "bad": 2037,
      "girl": 2038,
      "save": 2039,
      "account": 2040,
      "fear": 2041,
      "reduce": 2042,
      "yet": 2043,
      "around": 2044,
      "ether": 2045,
      "money": 2046,
      "allow": 2047,
      "whether": 2048,
      "among": 2049,
      "put": 2050,
      "evening": 2051,
      "fine": 2052,
      "fund": 2053,
      "start": 2054,
      "then": 2055,
      "attorney": 2056,
      "message": 2057,
      "perform": 2058,
      "floor": 2059,
      "public": 2060,
      "however": 2061,
      "customer": 2062,
      "recently": 2063,
      "season": 2064,
      "ucation": 2065,
      "education": 2066,
      "many": 2067,
      "week": 2068,
      "hope": 2069,
      "military": 2070,
      "significant": 2071,
      "single": 2072,
      "film": 2073,
      "research": 2074,
      "region": 2075,
      "church": 2076,
      "behind": 2077,
      "like": 2078,
      "hotel": 2079,
      "office": 2080,
      "professional": 2081,
      "mpaign": 2082,
      "sort": 2083,
      "campaign": 2084,
      "unit": 2085,
      "energy": 2086,
      "receive": 2087,
      "mother": 2088,
      "class": 2089,
      "chance": 2090,
      "hard": 2091,
      "although": 2092,
      "guess": 2093,
      "PM": 2094,
      "brother": 2095,
      "dark": 2096,
      "half": 2097,
      "walk": 2098,
      "oulder": 2099,
      "shoulder": 2100,
      "improve": 2101,
      "professor": 2102,
      "make": 2103,
      "someone": 2104,
      "agreement": 2105,
      "eech": 2106,
      "speech": 2107,
      "rise": 2108,
      "word": 2109,
      "blood": 2110,
      "kitchen": 2111,
      "plant": 2112,
      "onto": 2113,
      "three": 2114,
      "contain": 2115,
      "debate": 2116,
      "Con": 2117,
      "Di": 2118,
      "break": 2119,
      "plan": 2120,
      "attack": 2121,
      "draw": 2122,
      "water": 2123,
      "chair": 2124,
      "but": 2125,
      "Po": 2126,
      "paper": 2127,
      "site": 2128,
      "result": 2129,
      "catch": 2130,
      "material": 2131,
      "item": 2132,
      "standard": 2133,
      "produce": 2134,
      "munity": 2135,
      "community": 2136,
      "throw": 2137,
      "true": 2138,
      "finally": 2139,
      "which": 2140,
      "two": 2141,
      "project": 2142,
      "food": 2143,
      "service": 2144,
      "choice": 2145,
      "perhaps": 2146,
      "heart": 2147,
      "sell": 2148,
      "hot": 2149,
      "Ex": 2150,
      "The": 2151,
      "Al": 2152,
      "Su": 2153,
      "Be": 2154,
      "St": 2155,
      "Per": 2156,
      "Wh": 2157,
      "Sta": 2158,
      "Le": 2159,
      "For": 2160,
      "Ar": 2161,
      "En": 2162,
      "An": 2163,
      "Pre": 2164,
      "Sp": 2165,
      "Ne": 2166,
      "He": 2167,
      "Bo": 2168,
      "Some": 2169,
      "Ser": 2170,
      "Ag": 2171,
      "To": 2172,
      "Ac": 2173,
      "Rec": 2174,
      "At": 2175,
      "Ro": 2176,
      "Wi": 2177,
      "No": 2178,
      "Li": 2179,
      "Ca": 2180,
      "So": 2181,
      "Qu": 2182,
      "Every": 2183,
      "Wor": 2184,
      "Fin": 2185,
      "On": 2186,
      "Inter": 2187,
      "Pol": 2188,
      "Man": 2189,
      "Tra": 2190,
      "Lo": 2191,
      "Ma": 2192,
      "Col": 2193,
      "Thro": 2194,
      "Rel": 2195,
      "Ad": 2196,
      "Fe": 2197,
      "Bu": 2198,
      "Inc": 2199,
      "Imp": 2200,
      "With": 2201,
      "Go": 2202,
      "Au": 2203,
      "Gro": 2204,
      "Part": 2205,
      "Or": 2206,
      "Respon": 2207,
      "Parti": 2208,
      "Se": 2209,
      "New": 2210,
      "Pa": 2211,
      "Mo": 2212,
      "Ho": 2213,
      "Ra": 2214,
      "Who": 2215,
      "It": 2216,
      "Disc": 2217,
      "Fo": 2218,
      "Produ": 2219,
      "Dec": 2220,
      "Any": 2221,
      "Whi": 2222,
      "Posi": 2223,
      "We": 2224,
      "Direc": 2225,
      "Hu": 2226,
      "Read": 2227,
      "Again": 2228,
      "Pu": 2229,
      "Treat": 2230,
      "Through": 2231,
      "Ke": 2232,
      "Act": 2233,
      "Nat": 2234,
      "Other": 2235,
      "Sign": 2236,
      "Wind": 2237,
      "Recent": 2238,
      "Add": 2239,
      "May": 2240,
      "Cho": 2241,
      "Him": 2242,
      "Sou": 2243,
      "Develop": 2244,
      "Major": 2245,
      "Feel": 2246,
      "Incl": 2247,
      "Fro": 2248,
      "Your": 2249,
      "Meet": 2250,
      "Sh": 2251,
      "Lead": 2252,
      "Ima": 2253,
      "La": 2254,
      "My": 2255,
      "eason": 2256,
      "Environment": 2257,
      "Law": 2258,
      "Cour": 2259,
      "How": 2260,
      "Si": 2261,
      "ull": 2262,
      "Spec": 2263,
      "Care": 2264,
      "Build": 2265,
      "Car": 2266,
      "Sk": 2267,
      "You": 2268,
      "Them": 2269,
      "Grow": 2270,
      "Cul": 2271,
      "Fir": 2272,
      "Main": 2273,
      "Of": 2274,
      "Popul": 2275,
      "App": 2276,
      "Bec": 2277,
      "Cou": 2278,
      "Sto": 2279,
      "Author": 2280,
      "Gener": 2281,
      "Mar": 2282,
      "Nation": 2283,
      "Teach": 2284,
      "Know": 2285,
      "Particul": 2286,
      "Sci": 2287,
      "Ta": 2288,
      "Tri": 2289,
      "Happ": 2290,
      "Ph": 2291,
      "Up": 2292,
      "Stand": 2293,
      "Co": 2294,
      "Her": 2295,
      "Red": 2296,
      "Vo": 2297,
      "Agree": 2298,
      "Certain": 2299,
      "Fa": 2300,
      "Off": 2301,
      "Offic": 2302,
      "Profe": 2303,
      "Op": 2304,
      "Sha": 2305,
      "Differ": 2306,
      "See": 2307,
      "Jo": 2308,
      "Out": 2309,
      "etter": 2310,
      "Arti": 2311,
      "Am": 2312,
      "Simp": 2313,
      "Te": 2314,
      "Tru": 2315,
      "Real": 2316,
      "Success": 2317,
      "Stud": 2318,
      "Even": 2319,
      "His": 2320,
      "West": 2321,
      "Discu": 2322,
      "Move": 2323,
      "Exper": 2324,
      "Work": 2325,
      "Interest": 2326,
      "State": 2327,
      "Person": 2328,
      "Bl": 2329,
      "Sing": 2330,
      "Under": 2331,
      "Econ": 2332,
      "Econom": 2333,
      "Pla": 2334,
      "Manage": 2335,
      "Politi": 2336,
      "Health": 2337,
      "Hand": 2338,
      "Net": 2339,
      "War": 2340,
      "Network": 2341,
      "Draw": 2342,
      "Bag": 2343,
      "Though": 2344,
      "Point": 2345,
      "Serious": 2346,
      "Bank": 2347,
      "Lot": 2348,
      "Seat": 2349,
      "Senior": 2350,
      "Ti": 2351,
      "Positive": 2352,
      "Amount": 2353,
      "Time": 2354,
      "Around": 2355,
      "Election": 2356,
      "Lea": 2357,
      "Tv": 2358,
      "Leave": 2359,
      "Girl": 2360,
      "Well": 2361,
      "Good": 2362,
      "Majority": 2363,
      "Meeting": 2364,
      "Become": 2365,
      "Action": 2366,
      "Cell": 2367,
      "Hair": 2368,
      "Min": 2369,
      "Mag": 2370,
      "Over": 2371,
      "Old": 2372,
      "Run": 2373,
      "Station": 2374,
      "Agent": 2375,
      "Partner": 2376,
      "White": 2377,
      "Minute": 2378,
      "Magazine": 2379,
      "Bud": 2380,
      "Employee": 2381,
      "Evidence": 2382,
      "Full": 2383,
      "Gover": 2384,
      "Kind": 2385,
      "Stru": 2386,
      "This": 2387,
      "Unit": 2388,
      "Check": 2389,
      "What": 2390,
      "Present": 2391,
      "Soon": 2392,
      "Local": 2393,
      "Against": 2394,
      "Treatment": 2395,
      "Key": 2396,
      "Budget": 2397,
      "Government": 2398,
      "Structure": 2399,
      "Cover": 2400,
      "Cause": 2401,
      "Central": 2402,
      "Far": 2403,
      "Rest": 2404,
      "Try": 2405,
      "Wonder": 2406,
      "Poor": 2407,
      "Stay": 2408,
      "Together": 2409,
      "Likely": 2410,
      "Trade": 2411,
      "Direction": 2412,
      "Choice": 2413,
      "Base": 2414,
      "Blood": 2415,
      "Center": 2416,
      "Four": 2417,
      "Family": 2418,
      "Kid": 2419,
      "Pe": 2420,
      "Sy": 2421,
      "Would": 2422,
      "Memory": 2423,
      "Charge": 2424,
      "Continue": 2425,
      "Consider": 2426,
      "Already": 2427,
      "Perform": 2428,
      "Animal": 2429,
      "Recognize": 2430,
      "Training": 2431,
      "Human": 2432,
      "Yourself": 2433,
      "People": 2434,
      "System": 2435,
      "Away": 2436,
      "Assume": 2437,
      "Claim": 2438,
      "Edu": 2439,
      "Factor": 2440,
      "Id": 2441,
      "Million": 2442,
      "Money": 2443,
      "Ow": 2444,
      "Offer": 2445,
      "Power": 2446,
      "Rise": 2447,
      "Tough": 2448,
      "Usually": 2449,
      "deed": 2450,
      "Deep": 2451,
      "Indeed": 2452,
      "Change": 2453,
      "Suffer": 2454,
      "Service": 2455,
      "Total": 2456,
      "Role": 2457,
      "Road": 2458,
      "Admit": 2459,
      "While": 2460,
      "Throughout": 2461,
      "Education": 2462,
      "Identify": 2463,
      "Owner": 2464,
      "As": 2465,
      "Avoid": 2466,
      "Case": 2467,
      "Ea": 2468,
      "Fi": 2469,
      "Fire": 2470,
      "Follow": 2471,
      "Film": 2472,
      "Letter": 2473,
      "Oil": 2474,
      "Pay": 2475,
      "Ty": 2476,
      "Will": 2477,
      "Word": 2478,
      "Ye": 2479,
      "Represent": 2480,
      "Member": 2481,
      "Art": 2482,
      "Make": 2483,
      "College": 2484,
      "Focus": 2485,
      "Career": 2486,
      "Cultural": 2487,
      "National": 2488,
      "Physical": 2489,
      "Open": 2490,
      "Successful": 2491,
      "Easy": 2492,
      "Field": 2493,
      "Type": 2494,
      "Yes": 2495,
      "Cut": 2496,
      "Home": 2497,
      "Just": 2498,
      "Now": 2499,
      "Pm": 2500,
      "Pick": 2501,
      "Site": 2502,
      "Shou": 2503,
      "Ter": 2504,
      "Tur": 2505,
      "Where": 2506,
      "blic": 2507,
      "Reveal": 2508,
      "igious": 2509,
      "Their": 2510,
      "Enough": 2511,
      "Nothing": 2512,
      "Look": 2513,
      "Religious": 2514,
      "Director": 2515,
      "Huge": 2516,
      "Push": 2517,
      "Public": 2518,
      "Should": 2519,
      "Special": 2520,
      "Young": 2521,
      "Country": 2522,
      "Shoulder": 2523,
      "Term": 2524,
      "Turn": 2525,
      "Ano": 2526,
      "Bed": 2527,
      "Bill": 2528,
      "Citi": 2529,
      "Close": 2530,
      "Est": 2531,
      "Fine": 2532,
      "Fact": 2533,
      "Five": 2534,
      "Friend": 2535,
      "Light": 2536,
      "Operation": 2537,
      "Plant": 2538,
      "Reason": 2539,
      "Such": 2540,
      "Smile": 2541,
      "Tow": 2542,
      "Tod": 2543,
      "Wrong": 2544,
      "swer": 2545,
      "Degree": 2546,
      "Determine": 2547,
      "Detail": 2548,
      "Protect": 2549,
      "Message": 2550,
      "Character": 2551,
      "Theory": 2552,
      "Former": 2553,
      "Answer": 2554,
      "Attorney": 2555,
      "Camera": 2556,
      "Collection": 2557,
      "Important": 2558,
      "Position": 2559,
      "Ready": 2560,
      "Natural": 2561,
      "Others": 2562,
      "Southern": 2563,
      "Feeling": 2564,
      "From": 2565,
      "Generation": 2566,
      "Outside": 2567,
      "Another": 2568,
      "Citizen": 2569,
      "Establish": 2570,
      "Toward": 2571,
      "Today": 2572,
      "Bab": 2573,
      "Can": 2574,
      "Could": 2575,
      "Effort": 2576,
      "Flo": 2577,
      "Federal": 2578,
      "Garden": 2579,
      "Ite": 2580,
      "One": 2581,
      "Sc": 2582,
      "Sense": 2583,
      "Show": 2584,
      "Soldier": 2585,
      "Value": 2586,
      "Yet": 2587,
      "Really": 2588,
      "Instead": 2589,
      "Exist": 2590,
      "Head": 2591,
      "Wife": 2592,
      "Buy": 2593,
      "Without": 2594,
      "Responsibility": 2595,
      "Pass": 2596,
      "Image": 2597,
      "Court": 2598,
      "Cost": 2599,
      "Father": 2600,
      "Join": 2601,
      "Baby": 2602,
      "Floor": 2603,
      "Item": 2604,
      "Scene": 2605,
      "Ask": 2606,
      "Bring": 2607,
      "Billion": 2608,
      "Beat": 2609,
      "Ci": 2610,
      "Dream": 2611,
      "Dark": 2612,
      "Each": 2613,
      "Event": 2614,
      "Fast": 2615,
      "Hou": 2616,
      "Kitchen": 2617,
      "Low": 2618,
      "Med": 2619,
      "Son": 2620,
      "Sti": 2621,
      "Sur": 2622,
      "Sist": 2623,
      "Ten": 2624,
      "Test": 2625,
      "Vie": 2626,
      "Think": 2627,
      "Alone": 2628,
      "Performance": 2629,
      "Left": 2630,
      "Boy": 2631,
      "Serve": 2632,
      "Activity": 2633,
      "Attack": 2634,
      "Hotel": 2635,
      "Week": 2636,
      "Actually": 2637,
      "Nature": 2638,
      "Himself": 2639,
      "Include": 2640,
      "Including": 2641,
      "Environmental": 2642,
      "Similar": 2643,
      "Apply": 2644,
      "Science": 2645,
      "Voice": 2646,
      "Student": 2647,
      "Civil": 2648,
      "House": 2649,
      "Medical": 2650,
      "Still": 2651,
      "Surface": 2652,
      "Sister": 2653,
      "View": 2654,
      "Ability": 2655,
      "But": 2656,
      "Brother": 2657,
      "Drive": 2658,
      "Drug": 2659,
      "Future": 2660,
      "Hold": 2661,
      "Here": 2662,
      "Help": 2663,
      "Half": 2664,
      "Mea": 2665,
      "More": 2666,
      "Nice": 2667,
      "Pattern": 2668,
      "Rate": 2669,
      "She": 2670,
      "Spe": 2671,
      "Story": 2672,
      "Sport": 2673,
      "Tho": 2674,
      "Wa": 2675,
      "Want": 2676,
      "ationship": 2677,
      "Commercial": 2678,
      "Door": 2679,
      "Deal": 2680,
      "Defense": 2681,
      "Media": 2682,
      "Support": 2683,
      "Perhaps": 2684,
      "Why": 2685,
      "Which": 2686,
      "Pretty": 2687,
      "Something": 2688,
      "Series": 2689,
      "Agency": 2690,
      "Note": 2691,
      "Quickly": 2692,
      "Worry": 2693,
      "Relationship": 2694,
      "Respond": 2695,
      "Rather": 2696,
      "Produce": 2697,
      "Building": 2698,
      "Firm": 2699,
      "Popular": 2700,
      "Trial": 2701,
      "Official": 2702,
      "Professional": 2703,
      "Measure": 2704,
      "Speech": 2705,
      "Those": 2706,
      "Wait": 2707,
      "Cur": 2708,
      "Catch": 2709,
      "Especially": 2710,
      "Fight": 2711,
      "Have": 2712,
      "Lan": 2713,
      "Lay": 2714,
      "Lose": 2715,
      "Later": 2716,
      "Lear": 2717,
      "Last": 2718,
      "Morning": 2719,
      "Near": 2720,
      "Stro": 2721,
      "Situ": 2722,
      "Us": 2723,
      "Vi": 2724,
      "Various": 2725,
      "Whe": 2726,
      "Computer": 2727,
      "Doctor": 2728,
      "Community": 2729,
      "Research": 2730,
      "Receive": 2731,
      "Behavior": 2732,
      "Form": 2733,
      "Prepare": 2734,
      "Heart": 2735,
      "Someone": 2736,
      "Rock": 2737,
      "Everyone": 2738,
      "Finally": 2739,
      "Few": 2740,
      "Seek": 2741,
      "Sound": 2742,
      "Skin": 2743,
      "Themselves": 2744,
      "Growth": 2745,
      "Stock": 2746,
      "Share": 2747,
      "Simple": 2748,
      "Personal": 2749,
      "Current": 2750,
      "Language": 2751,
      "Learn": 2752,
      "Strong": 2753,
      "Situation": 2754,
      "Visit": 2755,
      "Whether": 2756,
      "Along": 2757,
      "Business": 2758,
      "Candidate": 2759,
      "Early": 2760,
      "List": 2761,
      "Live": 2762,
      "Mouth": 2763,
      "Moment": 2764,
      "Piece": 2765,
      "Sit": 2766,
      "Sort": 2767,
      "Stree": 2768,
      "Information": 2769,
      "Threat": 2770,
      "They": 2771,
      "Also": 2772,
      "Allow": 2773,
      "Although": 2774,
      "Stuff": 2775,
      "Force": 2776,
      "Speak": 2777,
      "Both": 2778,
      "Onto": 2779,
      "Color": 2780,
      "Relate": 2781,
      "Administration": 2782,
      "Increase": 2783,
      "Impact": 2784,
      "Improve": 2785,
      "Audience": 2786,
      "Whose": 2787,
      "Window": 2788,
      "Recently": 2789,
      "Front": 2790,
      "Skill": 2791,
      "Marriage": 2792,
      "Happy": 2793,
      "Certainly": 2794,
      "Worker": 2795,
      "Street": 2796,
      "Best": 2797,
      "Cup": 2798,
      "Clear": 2799,
      "El": 2800,
      "Ener": 2801,
      "Gun": 2802,
      "Hour": 2803,
      "Hot": 2804,
      "Line": 2805,
      "Might": 2806,
      "Middle": 2807,
      "Number": 2808,
      "Picture": 2809,
      "Secon": 2810,
      "Side": 2811,
      "Water": 2812,
      "ision": 2813,
      "Thing": 2814,
      "Mean": 2815,
      "Child": 2816,
      "Contain": 2817,
      "Explain": 2818,
      "President": 2819,
      "Adult": 2820,
      "Within": 2821,
      "Order": 2822,
      "Organization": 2823,
      "Model": 2824,
      "Itself": 2825,
      "Decision": 2826,
      "Keep": 2827,
      "Significant": 2828,
      "Maybe": 2829,
      "Imagine": 2830,
      "Six": 2831,
      "Particularly": 2832,
      "Take": 2833,
      "Different": 2834,
      "Else": 2835,
      "Energy": 2836,
      "Second": 2837,
      "Able": 2838,
      "Back": 2839,
      "Born": 2840,
      "Break": 2841,
      "Card": 2842,
      "Class": 2843,
      "Eight": 2844,
      "Fly": 2845,
      "Glass": 2846,
      "Hit": 2847,
      "If": 2848,
      "Laugh": 2849,
      "Miss": 2850,
      "Price": 2851,
      "Stra": 2852,
      "Same": 2853,
      "Seven": 2854,
      "Season": 2855,
      "Very": 2856,
      "Wide": 2857,
      "tegy": 2858,
      "quire": 2859,
      "North": 2860,
      "Compare": 2861,
      "Common": 2862,
      "Remain": 2863,
      "Report": 2864,
      "Require": 2865,
      "Democratic": 2866,
      "Possible": 2867,
      "Always": 2868,
      "Suggest": 2869,
      "Beyond": 2870,
      "Argue": 2871,
      "World": 2872,
      "Finish": 2873,
      "Throw": 2874,
      "Group": 2875,
      "Participant": 2876,
      "Short": 2877,
      "Course": 2878,
      "Carry": 2879,
      "First": 2880,
      "Often": 2881,
      "Population": 2882,
      "Store": 2883,
      "Market": 2884,
      "Particular": 2885,
      "Upon": 2886,
      "Herself": 2887,
      "Article": 2888,
      "Strategy": 2889,
      "Av": 2890,
      "By": 2891,
      "Dog": 2892,
      "Data": 2893,
      "Drop": 2894,
      "End": 2895,
      "Fall": 2896,
      "Fund": 2897,
      "Hear": 2898,
      "Little": 2899,
      "Least": 2900,
      "Mind": 2901,
      "Matter": 2902,
      "Nearly": 2903,
      "Own": 2904,
      "Page": 2905,
      "Plan": 2906,
      "Peace": 2907,
      "Right": 2908,
      "Range": 2909,
      "Source": 2910,
      "Set": 2911,
      "Tro": 2912,
      "Top": 2913,
      "Use": 2914,
      "Walk": 2915,
      "Write": 2916,
      "Yard": 2917,
      "stry": 2918,
      "dustry": 2919,
      "Resource": 2920,
      "Reality": 2921,
      "Investment": 2922,
      "Industry": 2923,
      "That": 2924,
      "Process": 2925,
      "Conference": 2926,
      "These": 2927,
      "Before": 2928,
      "When": 2929,
      "Level": 2930,
      "Enjoy": 2931,
      "Prevent": 2932,
      "Question": 2933,
      "International": 2934,
      "Travel": 2935,
      "News": 2936,
      "Address": 2937,
      "Tax": 2938,
      "Seem": 2939,
      "Team": 2940,
      "Discussion": 2941,
      "Available": 2942,
      "Trouble": 2943,
      "Area": 2944,
      "Affect": 2945,
      "During": 2946,
      "Fore": 2947,
      "Gue": 2948,
      "Long": 2949,
      "Play": 2950,
      "Section": 2951,
      "There": 2952,
      "Two": 2953,
      "Win": 2954,
      "Company": 2955,
      "Reach": 2956,
      "Remember": 2957,
      "Design": 2958,
      "Inside": 2959,
      "Involve": 2960,
      "Individual": 2961,
      "Than": 2962,
      "Prove": 2963,
      "Project": 2964,
      "Church": 2965,
      "Condition": 2966,
      "Consumer": 2967,
      "Summer": 2968,
      "Stage": 2969,
      "Leg": 2970,
      "Arm": 2971,
      "Record": 2972,
      "Listen": 2973,
      "Social": 2974,
      "Quality": 2975,
      "Everything": 2976,
      "Financial": 2977,
      "Loss": 2978,
      "Parent": 2979,
      "Most": 2980,
      "Discover": 2981,
      "Choose": 2982,
      "Myself": 2983,
      "Specific": 2984,
      "Appear": 2985,
      "Knowledge": 2986,
      "Realize": 2987,
      "Movement": 2988,
      "Foreign": 2989,
      "Guess": 2990,
      "Air": 2991,
      "All": 2992,
      "And": 2993,
      "Approach": 2994,
      "Bar": 2995,
      "Bad": 2996,
      "Create": 2997,
      "Daughter": 2998,
      "Hard": 2999,
      "Hundred": 3000,
      "Late": 3001,
      "Mon": 3002,
      "Must": 3003,
      "Mother": 3004,
      "Much": 3005,
      "Mission": 3006,
      "Pain": 3007,
      "Tend": 3008,
      "Way": 3009,
      "Yea": 3010,
      "ting": 3011,
      "Program": 3012,
      "Staff": 3013,
      "Less": 3014,
      "Spend": 3015,
      "Somebody": 3016,
      "Like": 3017,
      "Life": 3018,
      "However": 3019,
      "Happen": 3020,
      "Statement": 3021,
      "Economic": 3022,
      "Player": 3023,
      "Month": 3024,
      "Painting": 3025,
      "Yeah": 3026,
      "Ago": 3027,
      "Cus": 3028,
      "City": 3029,
      "Cam": 3030,
      "Down": 3031,
      "Machine": 3032,
      "Music": 3033,
      "Ok": 3034,
      "Put": 3035,
      "Practice": 3036,
      "Ste": 3037,
      "Sco": 3038,
      "Watch": 3039,
      "Wear": 3040,
      "Woman": 3041,
      "Return": 3042,
      "Reflect": 3043,
      "tention": 3044,
      "Expect": 3045,
      "Subject": 3046,
      "Begin": 3047,
      "Whom": 3048,
      "Spring": 3049,
      "Too": 3050,
      "Attention": 3051,
      "Once": 3052,
      "Police": 3053,
      "Party": 3054,
      "Movie": 3055,
      "Hope": 3056,
      "Race": 3057,
      "Its": 3058,
      "Leader": 3059,
      "Trip": 3060,
      "Agreement": 3061,
      "True": 3062,
      "Truth": 3063,
      "Customer": 3064,
      "Campaign": 3065,
      "Step": 3066,
      "Score": 3067,
      "Ahead": 3068,
      "Bit": 3069,
      "Big": 3070,
      "Cle": 3071,
      "Chair": 3072,
      "Day": 3073,
      "Ever": 3074,
      "Fish": 3075,
      "Gas": 3076,
      "Not": 3077,
      "Press": 3078,
      "Purpose": 3079,
      "Sell": 3080,
      "Say": 3081,
      "Save": 3082,
      "Stop": 3083,
      "Tech": 3084,
      "Writer": 3085,
      "Weight": 3086,
      "ecutive": 3087,
      "Describe": 3088,
      "Despite": 3089,
      "Provide": 3090,
      "Challenge": 3091,
      "Chance": 3092,
      "Executive": 3093,
      "Whatever": 3094,
      "Forward": 3095,
      "Arrive": 3096,
      "Board": 3097,
      "Room": 3098,
      "Society": 3099,
      "Manager": 3100,
      "Culture": 3101,
      "Couple": 3102,
      "General": 3103,
      "Scientist": 3104,
      "Standard": 3105,
      "Reduce": 3106,
      "Difference": 3107,
      "Artist": 3108,
      "Western": 3109,
      "Expert": 3110,
      "Blue": 3111,
      "Clearly": 3112,
      "Pressure": 3113,
      "Technology": 3114,
      "Dinner": 3115,
      "Edge": 3116,
      "Either": 3117,
      "Great": 3118,
      "Ide": 3119,
      "Never": 3120,
      "Night": 3121,
      "Occur": 3122,
      "Ru": 3123,
      "Sure": 3124,
      "Small": 3125,
      "Talk": 3126,
      "dicate": 3127,
      "Indicate": 3128,
      "Difficult": 3129,
      "Need": 3130,
      "Across": 3131,
      "Notice": 3132,
      "Newspaper": 3133,
      "Development": 3134,
      "Lawyer": 3135,
      "Television": 3136,
      "Evening": 3137,
      "History": 3138,
      "Experience": 3139,
      "Understand": 3140,
      "Idea": 3141,
      "Rule": 3142,
      "Ball": 3143,
      "Call": 3144,
      "Century": 3145,
      "Find": 3146,
      "Give": 3147,
      "Hi": 3148,
      "Husband": 3149,
      "Many": 3150,
      "Name": 3151,
      "Pull": 3152,
      "Send": 3153,
      "Size": 3154,
      "Thi": 3155,
      "Wish": 3156,
      "Year": 3157,
      "rd": 3158,
      "Into": 3159,
      "Forget": 3160,
      "Quite": 3161,
      "Everybody": 3162,
      "Raise": 3163,
      "Authority": 3164,
      "Vote": 3165,
      "Officer": 3166,
      "Professor": 3167,
      "Shake": 3168,
      "High": 3169,
      "Third": 3170,
      "Bet": 3171,
      "Believe": 3172,
      "Crime": 3173,
      "Eat": 3174,
      "Eye": 3175,
      "Free": 3176,
      "Fear": 3177,
      "Fig": 3178,
      "Game": 3179,
      "Iss": 3180,
      "Modern": 3181,
      "Material": 3182,
      "Nex": 3183,
      "None": 3184,
      "Our": 3185,
      "Ri": 3186,
      "Sud": 3187,
      "Since": 3188,
      "Ton": 3189,
      "Town": 3190,
      "denly": 3191,
      "tire": 3192,
      "Until": 3193,
      "Thank": 3194,
      "Concern": 3195,
      "Exactly": 3196,
      "Star": 3197,
      "Entire": 3198,
      "Goal": 3199,
      "Response": 3200,
      "Paper": 3201,
      "Hospital": 3202,
      "Decide": 3203,
      "Anything": 3204,
      "Coach": 3205,
      "Discuss": 3206,
      "Management": 3207,
      "Between": 3208,
      "Figure": 3209,
      "Issue": 3210,
      "Next": 3211,
      "Risk": 3212,
      "Suddenly": 3213,
      "Tonight": 3214,
      "Benefit": 3215,
      "Cold": 3216,
      "Green": 3217,
      "Rich": 3218,
      "Radio": 3219,
      "Spa": 3220,
      "Sever": 3221,
      "Sea": 3222,
      "South": 3223,
      "Safe": 3224,
      "Wall": 3225,
      "Region": 3226,
      "Institution": 3227,
      "Thus": 3228,
      "Property": 3229,
      "Beautiful": 3230,
      "Behind": 3231,
      "Necessary": 3232,
      "Accept": 3233,
      "According": 3234,
      "Final": 3235,
      "Policy": 3236,
      "Foot": 3237,
      "Production": 3238,
      "Face": 3239,
      "Simply": 3240,
      "Political": 3241,
      "Space": 3242,
      "Several": 3243,
      "Land": 3244,
      "Large": 3245,
      "Sec": 3246,
      "Sty": 3247,
      "Tr": 3248,
      "urity": 3249,
      "Thought": 3250,
      "Only": 3251,
      "Interview": 3252,
      "Phone": 3253,
      "Interesting": 3254,
      "Security": 3255,
      "Style": 3256,
      "Traditional": 3257,
      "Age": 3258,
      "East": 3259,
      "Fill": 3260,
      "Table": 3261,
      "Result": 3262,
      "Thousand": 3263,
      "Control": 3264,
      "Almost": 3265,
      "Book": 3266,
      "Whole": 3267,
      "Product": 3268,
      "Decade": 3269,
      "Maintain": 3270,
      "Job": 3271,
      "Black": 3272,
      "Single": 3273,
      "Ab": 3274,
      "Get": 3275,
      "Ground": 3276,
      "Mention": 3277,
      "School": 3278,
      "Task": 3279,
      "Tell": 3280,
      "Example": 3281,
      "Start": 3282,
      "Box": 3283,
      "Food": 3284,
      "Because": 3285,
      "Teacher": 3286,
      "Office": 3287,
      "Politics": 3288,
      "About": 3289,
      "Effect": 3290,
      "Tree": 3291,
      "Probably": 3292,
      "Enter": 3293,
      "Option": 3294,
      "Study": 3295,
      "Abo": 3296,
      "Better": 3297,
      "Song": 3298,
      "Account": 3299,
      "Anyone": 3300,
      "Above": 3301,
      "Let": 3302,
      "Debate": 3303,
      "Then": 3304,
      "Economy": 3305,
      "Hea": 3306,
      "vy": 3307,
      "Capital": 3308,
      "Heavy": 3309,
      "Body": 3310,
      "Gu": 3311,
      "Mil": 3312,
      "Opportunity": 3313,
      "Analysis": 3314,
      "Place": 3315,
      "Guy": 3316,
      "Military": 3317,
      "Three": 3318,
      "Sometimes": 3319,
      "After": 3320,
      "Method": 3321,
      "Among": 3322,
      "Past": 3323
    },
    "merges": [
      [
        "r",
        "o"
      ],
      [
        "i",
        "n"
      ],
      [
        "e",
        "r"
      ],
      [
        "t",
        "o"
      ],
      [
        "f",
        "ro"
      ],
      [
        "fro",
        "m"
      ],
      [
        "r",
        "e"
      ],
      [
        "o",
        "n"
      ],
      [
        "t",
        "e"
      ],
      [
        "a",
        "n"
      ],
      [
        "e",
        "n"
      ],
      [
        "a",
        "l"
      ],
      [
        "o",
        "r"
      ],
      [
        "s",
        "t"
      ],
      [
        "t",
        "i"
      ],
      [
        "l",
        "e"
      ],
      [
        "t",
        "h"
      ],
      [
        "c",
        "e"
      ],
      [
        "l",
        "o"
      ],
      [
        "a",
        "r"
      ],
      [
        "T",
        "P"
      ],
      [
        "o",
        "u"
      ],
      [
        "s",
        "e"
      ],
      [
        "2",
        "0"
      ],
      [
        "1",
        "3"
      ],
      [
        "1",
        "9"
      ],
      [
        "1",
        "7"
      ],
      [
        "1",
        "5"
      ],
      [
        "1",
        "4"
      ],
      [
        "1",
        "6"
      ],
      [
        "1",
        "8"
      ],
      [
        "d",
        "e"
      ],
      [
        "1",
        "0"
      ],
      [
        "o",
        "m"
      ],
      [
        "1",
        "2"
      ],
      [
        "i",
        "c"
      ],
      [
        "ti",
        "on"
      ],
      [
        "s",
        "s"
      ],
      [
        "in",
        "g"
      ],
      [
        "e",
        "c"
      ],
      [
        "a",
        "t"
      ],
      [
        "a",
        "d"
      ],
      [
        "t",
        "r"
      ],
      [
        "2",
        "2"
      ],
      [
        "en",
        "t"
      ],
      [
        "i",
        "t"
      ],
      [
        "a",
        "c"
      ],
      [
        "s",
        "h"
      ],
      [
        "g",
        "e"
      ],
      [
        "2",
        "4"
      ],
      [
        "2",
        "3"
      ],
      [
        "v",
        "e"
      ],
      [
        "H",
        "T"
      ],
      [
        "HT",
        "TP"
      ],
      [
        "i",
        "l"
      ],
      [
        "te",
        "d"
      ],
      [
        "f",
        "f"
      ],
      [
        "s",
        "u"
      ],
      [
        "an",
        "d"
      ],
      [
        "e",
        "l"
      ],
      [
        "o",
        "w"
      ],
      [
        "p",
        "a"
      ],
      [
        "S",
        "S"
      ],
      [
        "n",
        "e"
      ],
      [
        "q",
        "u"
      ],
      [
        "s",
        "i"
      ],
      [
        "l",
        "y"
      ],
      [
        "v",
        "er"
      ],
      [
        "c",
        "h"
      ],
      [
        "f",
        "or"
      ],
      [
        "g",
        "h"
      ],
      [
        "m",
        "e"
      ],
      [
        "2",
        "5"
      ],
      [
        "u",
        "l"
      ],
      [
        "e",
        "st"
      ],
      [
        "c",
        "on"
      ],
      [
        "m",
        "a"
      ],
      [
        "g",
        "in"
      ],
      [
        "c",
        "om"
      ],
      [
        "s",
        "p"
      ],
      [
        "m",
        "p"
      ],
      [
        "M",
        "TP"
      ],
      [
        "S",
        "MTP"
      ],
      [
        "SS",
        "H"
      ],
      [
        "D",
        "N"
      ],
      [
        "DN",
        "S"
      ],
      [
        "lo",
        "gin"
      ],
      [
        "ou",
        "r"
      ],
      [
        "ce",
        "ss"
      ],
      [
        "t",
        "er"
      ],
      [
        "l",
        "a"
      ],
      [
        "c",
        "a"
      ],
      [
        "o",
        "l"
      ],
      [
        "t",
        "a"
      ],
      [
        "ff",
        "ic"
      ],
      [
        "ow",
        "n"
      ],
      [
        "tr",
        "a"
      ],
      [
        "1",
        "1"
      ],
      [
        "ou",
        "s"
      ],
      [
        "or",
        "t"
      ],
      [
        "p",
        "ro"
      ],
      [
        "u",
        "s"
      ],
      [
        "k",
        "e"
      ],
      [
        "o",
        "d"
      ],
      [
        "d",
        "i"
      ],
      [
        "s",
        "c"
      ],
      [
        "b",
        "e"
      ],
      [
        "i",
        "ous"
      ],
      [
        "th",
        "er"
      ],
      [
        "e",
        "x"
      ],
      [
        "v",
        "i"
      ],
      [
        "h",
        "i"
      ],
      [
        "u",
        "n"
      ],
      [
        "j",
        "ec"
      ],
      [
        "d",
        "own"
      ],
      [
        "ne",
        "t"
      ],
      [
        "p",
        "er"
      ],
      [
        "re",
        "qu"
      ],
      [
        "u",
        "r"
      ],
      [
        "f",
        "lo"
      ],
      [
        "it",
        "y"
      ],
      [
        "r",
        "i"
      ],
      [
        "a",
        "u"
      ],
      [
        "T",
        "el"
      ],
      [
        "l",
        "i"
      ],
      [
        "down",
        "lo"
      ],
      [
        "e",
        "ver"
      ],
      [
        "Tel",
        "net"
      ],
      [
        "C",
        "M"
      ],
      [
        "I",
        "CM"
      ],
      [
        "ICM",
        "P"
      ],
      [
        "D",
        "P"
      ],
      [
        "U",
        "DP"
      ],
      [
        "requ",
        "est"
      ],
      [
        "tra",
        "ffic"
      ],
      [
        "HTTP",
        "S"
      ],
      [
        "at",
        "te"
      ],
      [
        "a",
        "tion"
      ],
      [
        "C",
        "P"
      ],
      [
        "T",
        "CP"
      ],
      [
        "an",
        "s"
      ],
      [
        "F",
        "TP"
      ],
      [
        "m",
        "ent"
      ],
      [
        "g",
        "o"
      ],
      [
        "e",
        "d"
      ],
      [
        "w",
        "h"
      ],
      [
        "b",
        "le"
      ],
      [
        "in",
        "jec"
      ],
      [
        "m",
        "o"
      ],
      [
        "mp",
        "t"
      ],
      [
        "atte",
        "mpt"
      ],
      [
        "ic",
        "ious"
      ],
      [
        "gh",
        "t"
      ],
      [
        "a",
        "te"
      ],
      [
        "c",
        "i"
      ],
      [
        "f",
        "ul"
      ],
      [
        "w",
        "a"
      ],
      [
        "f",
        "e"
      ],
      [
        "ar",
        "d"
      ],
      [
        "i",
        "r"
      ],
      [
        "on",
        "e"
      ],
      [
        "i",
        "z"
      ],
      [
        "in",
        "d"
      ],
      [
        "our",
        "ce"
      ],
      [
        "r",
        "u"
      ],
      [
        "p",
        "le"
      ],
      [
        "s",
        "ent"
      ],
      [
        "s",
        "ource"
      ],
      [
        "m",
        "al"
      ],
      [
        "sh",
        "a"
      ],
      [
        "a",
        "g"
      ],
      [
        "o",
        "g"
      ],
      [
        "c",
        "cess"
      ],
      [
        "h",
        "e"
      ],
      [
        "p",
        "o"
      ],
      [
        "su",
        "ccess"
      ],
      [
        "re",
        "d"
      ],
      [
        "u",
        "re"
      ],
      [
        "m",
        "er"
      ],
      [
        "ac",
        "h"
      ],
      [
        "ro",
        "ad"
      ],
      [
        "om",
        "e"
      ],
      [
        "a",
        "ge"
      ],
      [
        "u",
        "e"
      ],
      [
        "i",
        "le"
      ],
      [
        "se",
        "l"
      ],
      [
        "th",
        "or"
      ],
      [
        "i",
        "ti"
      ],
      [
        "re",
        "e"
      ],
      [
        "in",
        "de"
      ],
      [
        "t",
        "ro"
      ],
      [
        "sha",
        "ke"
      ],
      [
        "h",
        "and"
      ],
      [
        "au",
        "thor"
      ],
      [
        "m",
        "an"
      ],
      [
        "success",
        "ful"
      ],
      [
        "p",
        "re"
      ],
      [
        "th",
        "e"
      ],
      [
        "i",
        "ght"
      ],
      [
        "to",
        "r"
      ],
      [
        "r",
        "a"
      ],
      [
        "p",
        "p"
      ],
      [
        "d",
        "er"
      ],
      [
        "en",
        "ce"
      ],
      [
        "A",
        "R"
      ],
      [
        "b",
        "road"
      ],
      [
        "ca",
        "st"
      ],
      [
        "AR",
        "P"
      ],
      [
        "broad",
        "cast"
      ],
      [
        "in",
        "e"
      ],
      [
        "al",
        "l"
      ],
      [
        "a",
        "de"
      ],
      [
        "a",
        "b"
      ],
      [
        "el",
        "l"
      ],
      [
        "F",
        "ile"
      ],
      [
        "tr",
        "us"
      ],
      [
        "downlo",
        "ade"
      ],
      [
        "trus",
        "ted"
      ],
      [
        "downloade",
        "d"
      ],
      [
        "s",
        "on"
      ],
      [
        "N",
        "or"
      ],
      [
        "ar",
        "t"
      ],
      [
        "h",
        "a"
      ],
      [
        "pa",
        "y"
      ],
      [
        "n",
        "ing"
      ],
      [
        "y",
        "e"
      ],
      [
        "P",
        "ing"
      ],
      [
        "L",
        "S"
      ],
      [
        "T",
        "LS"
      ],
      [
        "com",
        "ple"
      ],
      [
        "hand",
        "shake"
      ],
      [
        "comple",
        "ted"
      ],
      [
        "n",
        "o"
      ],
      [
        "te",
        "c"
      ],
      [
        "E",
        "T"
      ],
      [
        "G",
        "ET"
      ],
      [
        "h",
        "t"
      ],
      [
        "m",
        "l"
      ],
      [
        "inde",
        "x"
      ],
      [
        "ht",
        "ml"
      ],
      [
        "ma",
        "il"
      ],
      [
        "tro",
        "l"
      ],
      [
        "re",
        "c"
      ],
      [
        "pa",
        "ge"
      ],
      [
        "er",
        "y"
      ],
      [
        "con",
        "trol"
      ],
      [
        "f",
        "er"
      ],
      [
        "flo",
        "w"
      ],
      [
        "Nor",
        "mal"
      ],
      [
        "ec",
        "u"
      ],
      [
        "w",
        "or"
      ],
      [
        "qu",
        "ery"
      ],
      [
        "go",
        "og"
      ],
      [
        "goog",
        "le"
      ],
      [
        "for",
        "ce"
      ],
      [
        "ex",
        "ecu"
      ],
      [
        "ta",
        "ble"
      ],
      [
        "w",
        "i"
      ],
      [
        "C",
        "om"
      ],
      [
        "U",
        "n"
      ],
      [
        "n",
        "t"
      ],
      [
        "il",
        "l"
      ],
      [
        "al",
        "ly"
      ],
      [
        "ou",
        "t"
      ],
      [
        "sel",
        "f"
      ],
      [
        "D",
        "o"
      ],
      [
        "i",
        "on"
      ],
      [
        "th",
        "ing"
      ],
      [
        "g",
        "n"
      ],
      [
        "ar",
        "ti"
      ],
      [
        "i",
        "d"
      ],
      [
        "Com",
        "m"
      ],
      [
        "an",
        "t"
      ],
      [
        "ac",
        "t"
      ],
      [
        "a",
        "m"
      ],
      [
        "X",
        "SS"
      ],
      [
        "lo",
        "ad"
      ],
      [
        "injec",
        "ted"
      ],
      [
        "pay",
        "load"
      ],
      [
        "i",
        "ce"
      ],
      [
        "P",
        "hi"
      ],
      [
        "ac",
        "cess"
      ],
      [
        "sh",
        "ing"
      ],
      [
        "Phi",
        "shing"
      ],
      [
        "p",
        "u"
      ],
      [
        "s",
        "k"
      ],
      [
        "Comm",
        "and"
      ],
      [
        "b",
        "o"
      ],
      [
        "iz",
        "ed"
      ],
      [
        "author",
        "ized"
      ],
      [
        "Un",
        "authorized"
      ],
      [
        "ec",
        "tion"
      ],
      [
        "Q",
        "L"
      ],
      [
        "S",
        "QL"
      ],
      [
        "injec",
        "tion"
      ],
      [
        "P",
        "ort"
      ],
      [
        "an",
        "ning"
      ],
      [
        "de",
        "tec"
      ],
      [
        "sc",
        "anning"
      ],
      [
        "detec",
        "ted"
      ],
      [
        "D",
        "Do"
      ],
      [
        "a",
        "ted"
      ],
      [
        "in",
        "iti"
      ],
      [
        "flo",
        "od"
      ],
      [
        "DDo",
        "S"
      ],
      [
        "initi",
        "ated"
      ],
      [
        "R",
        "ans"
      ],
      [
        "om",
        "wa"
      ],
      [
        "downlo",
        "ad"
      ],
      [
        "Rans",
        "omwa"
      ],
      [
        "Ransomwa",
        "re"
      ],
      [
        "f",
        "o"
      ],
      [
        "s",
        "o"
      ],
      [
        "R",
        "ever"
      ],
      [
        "n",
        "ection"
      ],
      [
        "sh",
        "ell"
      ],
      [
        "con",
        "nection"
      ],
      [
        "Rever",
        "se"
      ],
      [
        "w",
        "e"
      ],
      [
        "M",
        "al"
      ],
      [
        "tr",
        "ans"
      ],
      [
        "fer",
        "red"
      ],
      [
        "execu",
        "table"
      ],
      [
        "Mal",
        "icious"
      ],
      [
        "trans",
        "ferred"
      ],
      [
        "B",
        "ru"
      ],
      [
        "I",
        "P"
      ],
      [
        "e",
        "a"
      ],
      [
        "su",
        "sp"
      ],
      [
        "Bru",
        "te"
      ],
      [
        "susp",
        "icious"
      ],
      [
        "f",
        "i"
      ],
      [
        "a",
        "y"
      ],
      [
        "s",
        "ome"
      ],
      [
        "b",
        "u"
      ],
      [
        "l",
        "d"
      ],
      [
        "d",
        "u"
      ],
      [
        "t",
        "ure"
      ],
      [
        "on",
        "g"
      ],
      [
        "s",
        "te"
      ],
      [
        "ff",
        "er"
      ],
      [
        "h",
        "o"
      ],
      [
        "t",
        "y"
      ],
      [
        "ar",
        "ly"
      ],
      [
        "c",
        "tion"
      ],
      [
        "en",
        "d"
      ],
      [
        "ta",
        "in"
      ],
      [
        "re",
        "at"
      ],
      [
        "ro",
        "n"
      ],
      [
        "u",
        "p"
      ],
      [
        "un",
        "d"
      ],
      [
        "u",
        "gh"
      ],
      [
        "i",
        "al"
      ],
      [
        "b",
        "l"
      ],
      [
        "c",
        "ul"
      ],
      [
        "re",
        "a"
      ],
      [
        "an",
        "y"
      ],
      [
        "ever",
        "y"
      ],
      [
        "p",
        "la"
      ],
      [
        "c",
        "ou"
      ],
      [
        "in",
        "ter"
      ],
      [
        "f",
        "a"
      ],
      [
        "g",
        "ro"
      ],
      [
        "p",
        "ol"
      ],
      [
        "c",
        "ol"
      ],
      [
        "f",
        "in"
      ],
      [
        "9",
        "6"
      ],
      [
        "s",
        "er"
      ],
      [
        "6",
        "3"
      ],
      [
        "1",
        "20"
      ],
      [
        "20",
        "2"
      ],
      [
        "19",
        "2"
      ],
      [
        "7",
        "9"
      ],
      [
        "8",
        "8"
      ],
      [
        "18",
        "9"
      ],
      [
        "4",
        "5"
      ],
      [
        "15",
        "5"
      ],
      [
        "2",
        "6"
      ],
      [
        "R",
        "e"
      ],
      [
        "4",
        "8"
      ],
      [
        "17",
        "1"
      ],
      [
        "15",
        "1"
      ],
      [
        "16",
        "9"
      ],
      [
        "8",
        "6"
      ],
      [
        "4",
        "9"
      ],
      [
        "20",
        "7"
      ],
      [
        "20",
        "9"
      ],
      [
        "17",
        "9"
      ],
      [
        "5",
        "7"
      ],
      [
        "1",
        "17"
      ],
      [
        "13",
        "2"
      ],
      [
        "13",
        "4"
      ],
      [
        "14",
        "4"
      ],
      [
        "2",
        "7"
      ],
      [
        "6",
        "4"
      ],
      [
        "3",
        "9"
      ],
      [
        "9",
        "9"
      ],
      [
        "12",
        "8"
      ],
      [
        "20",
        "4"
      ],
      [
        "19",
        "1"
      ],
      [
        "8",
        "5"
      ],
      [
        "9",
        "8"
      ],
      [
        "17",
        "3"
      ],
      [
        "16",
        "1"
      ],
      [
        "9",
        "3"
      ],
      [
        "19",
        "3"
      ],
      [
        "12",
        "3"
      ],
      [
        "12",
        "9"
      ],
      [
        "1",
        "12"
      ],
      [
        "6",
        "0"
      ],
      [
        "12",
        "1"
      ],
      [
        "4",
        "0"
      ],
      [
        "2",
        "14"
      ],
      [
        "20",
        "3"
      ],
      [
        "19",
        "4"
      ],
      [
        "14",
        "8"
      ],
      [
        "4",
        "7"
      ],
      [
        "13",
        "0"
      ],
      [
        "19",
        "9"
      ],
      [
        "14",
        "5"
      ],
      [
        "10",
        "2"
      ],
      [
        "3",
        "7"
      ],
      [
        "20",
        "1"
      ],
      [
        "3",
        "3"
      ],
      [
        "1",
        "16"
      ],
      [
        "20",
        "8"
      ],
      [
        "14",
        "0"
      ],
      [
        "19",
        "5"
      ],
      [
        "9",
        "1"
      ],
      [
        "2",
        "17"
      ],
      [
        "1",
        "13"
      ],
      [
        "2",
        "8"
      ],
      [
        "5",
        "1"
      ],
      [
        "15",
        "3"
      ],
      [
        "14",
        "9"
      ],
      [
        "10",
        "9"
      ],
      [
        "2",
        "20"
      ],
      [
        "13",
        "6"
      ],
      [
        "16",
        "8"
      ],
      [
        "12",
        "5"
      ],
      [
        "3",
        "8"
      ],
      [
        "8",
        "1"
      ],
      [
        "20",
        "6"
      ],
      [
        "15",
        "7"
      ],
      [
        "4",
        "2"
      ],
      [
        "3",
        "6"
      ],
      [
        "5",
        "5"
      ],
      [
        "13",
        "1"
      ],
      [
        "13",
        "7"
      ],
      [
        "18",
        "4"
      ],
      [
        "19",
        "6"
      ],
      [
        "10",
        "3"
      ],
      [
        "4",
        "1"
      ],
      [
        "1",
        "14"
      ],
      [
        "5",
        "3"
      ],
      [
        "17",
        "4"
      ],
      [
        "15",
        "8"
      ],
      [
        "2",
        "13"
      ],
      [
        "6",
        "5"
      ],
      [
        "13",
        "3"
      ],
      [
        "19",
        "8"
      ],
      [
        "22",
        "1"
      ],
      [
        "2",
        "1"
      ],
      [
        "2",
        "15"
      ],
      [
        "7",
        "0"
      ],
      [
        "8",
        "9"
      ],
      [
        "20",
        "0"
      ],
      [
        "17",
        "8"
      ],
      [
        "15",
        "9"
      ],
      [
        "4",
        "6"
      ],
      [
        "17",
        "0"
      ],
      [
        "5",
        "4"
      ],
      [
        "16",
        "5"
      ],
      [
        "5",
        "8"
      ],
      [
        "7",
        "5"
      ],
      [
        "8",
        "4"
      ],
      [
        "u",
        "d"
      ],
      [
        "20",
        "5"
      ],
      [
        "13",
        "5"
      ],
      [
        "8",
        "7"
      ],
      [
        "7",
        "4"
      ],
      [
        "9",
        "5"
      ],
      [
        "16",
        "6"
      ],
      [
        "10",
        "7"
      ],
      [
        "18",
        "5"
      ],
      [
        "12",
        "6"
      ],
      [
        "9",
        "0"
      ],
      [
        "10",
        "4"
      ],
      [
        "12",
        "4"
      ],
      [
        "5",
        "2"
      ],
      [
        "18",
        "2"
      ],
      [
        "2",
        "16"
      ],
      [
        "18",
        "1"
      ],
      [
        "6",
        "6"
      ],
      [
        "19",
        "7"
      ],
      [
        "17",
        "5"
      ],
      [
        "10",
        "1"
      ],
      [
        "7",
        "3"
      ],
      [
        "1",
        "18"
      ],
      [
        "3",
        "2"
      ],
      [
        "17",
        "7"
      ],
      [
        "18",
        "8"
      ],
      [
        "16",
        "7"
      ],
      [
        "18",
        "6"
      ],
      [
        "5",
        "6"
      ],
      [
        "7",
        "1"
      ],
      [
        "22",
        "3"
      ],
      [
        "15",
        "0"
      ],
      [
        "15",
        "4"
      ],
      [
        "18",
        "7"
      ],
      [
        "1",
        "19"
      ],
      [
        "19",
        "0"
      ],
      [
        "2",
        "10"
      ],
      [
        "5",
        "9"
      ],
      [
        "15",
        "2"
      ],
      [
        "9",
        "2"
      ],
      [
        "15",
        "6"
      ],
      [
        "22",
        "2"
      ],
      [
        "13",
        "9"
      ],
      [
        "14",
        "2"
      ],
      [
        "17",
        "2"
      ],
      [
        "12",
        "2"
      ],
      [
        "2",
        "9"
      ],
      [
        "2",
        "18"
      ],
      [
        "10",
        "8"
      ],
      [
        "1",
        "10"
      ],
      [
        "2",
        "11"
      ],
      [
        "14",
        "7"
      ],
      [
        "11",
        "1"
      ],
      [
        "2",
        "19"
      ],
      [
        "16",
        "0"
      ],
      [
        "10",
        "5"
      ],
      [
        "6",
        "7"
      ],
      [
        "6",
        "8"
      ],
      [
        "9",
        "7"
      ],
      [
        "14",
        "3"
      ],
      [
        "16",
        "3"
      ],
      [
        "7",
        "7"
      ],
      [
        "8",
        "3"
      ],
      [
        "14",
        "1"
      ],
      [
        "18",
        "3"
      ],
      [
        "5",
        "0"
      ],
      [
        "2",
        "12"
      ],
      [
        "8",
        "0"
      ],
      [
        "9",
        "4"
      ],
      [
        "4",
        "4"
      ],
      [
        "16",
        "4"
      ],
      [
        "18",
        "0"
      ],
      [
        "3",
        "5"
      ],
      [
        "7",
        "6"
      ],
      [
        "3",
        "0"
      ],
      [
        "6",
        "1"
      ],
      [
        "4",
        "3"
      ],
      [
        "6",
        "2"
      ],
      [
        "7",
        "2"
      ],
      [
        "17",
        "6"
      ],
      [
        "7",
        "8"
      ],
      [
        "10",
        "6"
      ],
      [
        "13",
        "8"
      ],
      [
        "14",
        "6"
      ],
      [
        "1",
        "15"
      ],
      [
        "8",
        "2"
      ],
      [
        "3",
        "1"
      ],
      [
        "i",
        "e"
      ],
      [
        "16",
        "2"
      ],
      [
        "3",
        "4"
      ],
      [
        "r",
        "y"
      ],
      [
        "ci",
        "al"
      ],
      [
        "6",
        "9"
      ],
      [
        "ou",
        "gh"
      ],
      [
        "o",
        "ver"
      ],
      [
        "il",
        "d"
      ],
      [
        "b",
        "er"
      ],
      [
        "m",
        "ber"
      ],
      [
        "ss",
        "ion"
      ],
      [
        "10",
        "0"
      ],
      [
        "a",
        "me"
      ],
      [
        "p",
        "e"
      ],
      [
        "ac",
        "k"
      ],
      [
        "en",
        "ti"
      ],
      [
        "o",
        "se"
      ],
      [
        "ec",
        "t"
      ],
      [
        "v",
        "en"
      ],
      [
        "sp",
        "on"
      ],
      [
        "g",
        "y"
      ],
      [
        "od",
        "y"
      ],
      [
        "u",
        "st"
      ],
      [
        "er",
        "n"
      ],
      [
        "p",
        "ul"
      ],
      [
        "pa",
        "re"
      ],
      [
        "j",
        "o"
      ],
      [
        "o",
        "k"
      ],
      [
        "wor",
        "k"
      ],
      [
        "te",
        "n"
      ],
      [
        "si",
        "de"
      ],
      [
        "ge",
        "t"
      ],
      [
        "vi",
        "e"
      ],
      [
        "wa",
        "y"
      ],
      [
        "c",
        "le"
      ],
      [
        "i",
        "te"
      ],
      [
        "b",
        "ody"
      ],
      [
        "lo",
        "w"
      ],
      [
        "h",
        "er"
      ],
      [
        "s",
        "it"
      ],
      [
        "ma",
        "in"
      ],
      [
        "o",
        "ther"
      ],
      [
        "t",
        "ur"
      ],
      [
        "re",
        "ad"
      ],
      [
        "e",
        "t"
      ],
      [
        "i",
        "f"
      ],
      [
        "i",
        "mp"
      ],
      [
        "en",
        "er"
      ],
      [
        "n",
        "ow"
      ],
      [
        "at",
        "er"
      ],
      [
        "n",
        "ation"
      ],
      [
        "m",
        "il"
      ],
      [
        "d",
        "o"
      ],
      [
        "sp",
        "ec"
      ],
      [
        "c",
        "ur"
      ],
      [
        "v",
        "o"
      ],
      [
        "p",
        "arti"
      ],
      [
        "si",
        "gn"
      ],
      [
        "di",
        "sc"
      ],
      [
        "re",
        "al"
      ],
      [
        "wi",
        "th"
      ],
      [
        "ch",
        "o"
      ],
      [
        "st",
        "and"
      ],
      [
        "in",
        "c"
      ],
      [
        "s",
        "to"
      ],
      [
        "se",
        "e"
      ],
      [
        "ne",
        "w"
      ],
      [
        "s",
        "ou"
      ],
      [
        "pro",
        "du"
      ],
      [
        "re",
        "spon"
      ],
      [
        "p",
        "art"
      ],
      [
        "th",
        "ro"
      ],
      [
        "23",
        "7"
      ],
      [
        "23",
        "2"
      ],
      [
        "12",
        "7"
      ],
      [
        "24",
        "2"
      ],
      [
        "25",
        "2"
      ],
      [
        "23",
        "3"
      ],
      [
        "a",
        "in"
      ],
      [
        "24",
        "3"
      ],
      [
        "23",
        "1"
      ],
      [
        "D",
        "e"
      ],
      [
        "24",
        "7"
      ],
      [
        "25",
        "3"
      ],
      [
        "23",
        "4"
      ],
      [
        "24",
        "1"
      ],
      [
        "24",
        "9"
      ],
      [
        "23",
        "6"
      ],
      [
        "25",
        "4"
      ],
      [
        "22",
        "9"
      ],
      [
        "25",
        "0"
      ],
      [
        "25",
        "5"
      ],
      [
        "24",
        "0"
      ],
      [
        "22",
        "5"
      ],
      [
        "24",
        "8"
      ],
      [
        "25",
        "1"
      ],
      [
        "24",
        "5"
      ],
      [
        "24",
        "4"
      ],
      [
        "22",
        "7"
      ],
      [
        "24",
        "6"
      ],
      [
        "22",
        "4"
      ],
      [
        "22",
        "6"
      ],
      [
        "23",
        "5"
      ],
      [
        "23",
        "8"
      ],
      [
        "i",
        "st"
      ],
      [
        "23",
        "0"
      ],
      [
        "23",
        "9"
      ],
      [
        "c",
        "t"
      ],
      [
        "22",
        "8"
      ],
      [
        "ou",
        "ld"
      ],
      [
        "n",
        "er"
      ],
      [
        "re",
        "ss"
      ],
      [
        "i",
        "ve"
      ],
      [
        "i",
        "gn"
      ],
      [
        "iz",
        "e"
      ],
      [
        "ic",
        "k"
      ],
      [
        "or",
        "d"
      ],
      [
        "e",
        "p"
      ],
      [
        "ve",
        "l"
      ],
      [
        "li",
        "on"
      ],
      [
        "tor",
        "y"
      ],
      [
        "or",
        "y"
      ],
      [
        "ti",
        "ce"
      ],
      [
        "ic",
        "al"
      ],
      [
        "pp",
        "ort"
      ],
      [
        "ti",
        "ve"
      ],
      [
        "lo",
        "p"
      ],
      [
        "ve",
        "lop"
      ],
      [
        "v",
        "ent"
      ],
      [
        "vi",
        "ron"
      ],
      [
        "viron",
        "ment"
      ],
      [
        "ic",
        "an"
      ],
      [
        "en",
        "se"
      ],
      [
        "en",
        "e"
      ],
      [
        "il",
        "ity"
      ],
      [
        "mo",
        "c"
      ],
      [
        "si",
        "on"
      ],
      [
        "ul",
        "t"
      ],
      [
        "c",
        "al"
      ],
      [
        "an",
        "ge"
      ],
      [
        "le",
        "ction"
      ],
      [
        "ol",
        "d"
      ],
      [
        "ri",
        "ve"
      ],
      [
        "ar",
        "ge"
      ],
      [
        "l",
        "l"
      ],
      [
        "M",
        "r"
      ],
      [
        "j",
        "or"
      ],
      [
        "ff",
        "ect"
      ],
      [
        "c",
        "k"
      ],
      [
        "er",
        "tain"
      ],
      [
        "ic",
        "h"
      ],
      [
        "hi",
        "s"
      ],
      [
        "a",
        "ve"
      ],
      [
        "a",
        "pp"
      ],
      [
        "m",
        "in"
      ],
      [
        "r",
        "ing"
      ],
      [
        "fo",
        "re"
      ],
      [
        "an",
        "k"
      ],
      [
        "read",
        "y"
      ],
      [
        "s",
        "y"
      ],
      [
        "ad",
        "d"
      ],
      [
        "a",
        "ble"
      ],
      [
        "at",
        "ter"
      ],
      [
        "y",
        "er"
      ],
      [
        "ent",
        "er"
      ],
      [
        "it",
        "al"
      ],
      [
        "su",
        "re"
      ],
      [
        "t",
        "al"
      ],
      [
        "he",
        "ad"
      ],
      [
        "g",
        "u"
      ],
      [
        "al",
        "th"
      ],
      [
        "mo",
        "st"
      ],
      [
        "at",
        "ch"
      ],
      [
        "I",
        "n"
      ],
      [
        "ec",
        "on"
      ],
      [
        "if",
        "ic"
      ],
      [
        "i",
        "p"
      ],
      [
        "un",
        "ity"
      ],
      [
        "ad",
        "i"
      ],
      [
        "w",
        "ard"
      ],
      [
        "ma",
        "y"
      ],
      [
        "s",
        "pa"
      ],
      [
        "st",
        "ud"
      ],
      [
        "ron",
        "g"
      ],
      [
        "o",
        "p"
      ],
      [
        "la",
        "ss"
      ],
      [
        "vie",
        "w"
      ],
      [
        "for",
        "m"
      ],
      [
        "in",
        "t"
      ],
      [
        "tr",
        "y"
      ],
      [
        "me",
        "mber"
      ],
      [
        "i",
        "ence"
      ],
      [
        "ter",
        "m"
      ],
      [
        "pre",
        "sent"
      ],
      [
        "le",
        "ad"
      ],
      [
        "lo",
        "se"
      ],
      [
        "ag",
        "ain"
      ],
      [
        "l",
        "an"
      ],
      [
        "pu",
        "bl"
      ],
      [
        "a",
        "ir"
      ],
      [
        "fa",
        "ce"
      ],
      [
        "e",
        "ven"
      ],
      [
        "mo",
        "ve"
      ],
      [
        "ar",
        "y"
      ],
      [
        "inter",
        "est"
      ],
      [
        "tur",
        "n"
      ],
      [
        "m",
        "on"
      ],
      [
        "r",
        "ate"
      ],
      [
        "jec",
        "t"
      ],
      [
        "ti",
        "me"
      ],
      [
        "gro",
        "w"
      ],
      [
        "b",
        "ab"
      ],
      [
        "nation",
        "al"
      ],
      [
        "parti",
        "cul"
      ],
      [
        "h",
        "ow"
      ],
      [
        "i",
        "ss"
      ],
      [
        "st",
        "ate"
      ],
      [
        "te",
        "ach"
      ],
      [
        "c",
        "o"
      ],
      [
        "mp",
        "le"
      ],
      [
        "g",
        "ue"
      ],
      [
        "i",
        "ma"
      ],
      [
        "le",
        "t"
      ],
      [
        "pol",
        "iti"
      ],
      [
        "de",
        "velop"
      ],
      [
        "econ",
        "om"
      ],
      [
        "o",
        "ffic"
      ],
      [
        "la",
        "w"
      ],
      [
        "di",
        "rec"
      ],
      [
        "c",
        "us"
      ],
      [
        "f",
        "ir"
      ],
      [
        "po",
        "pul"
      ],
      [
        "y",
        "our"
      ],
      [
        "en",
        "vironment"
      ],
      [
        "n",
        "ight"
      ],
      [
        "disc",
        "u"
      ],
      [
        "wh",
        "o"
      ],
      [
        "the",
        "m"
      ],
      [
        "hi",
        "m"
      ],
      [
        "a",
        "s"
      ],
      [
        "p",
        "h"
      ],
      [
        "ca",
        "re"
      ],
      [
        "de",
        "ci"
      ],
      [
        "per",
        "son"
      ],
      [
        "thro",
        "ugh"
      ],
      [
        "me",
        "et"
      ],
      [
        "w",
        "hi"
      ],
      [
        "d",
        "ay"
      ],
      [
        "c",
        "ar"
      ],
      [
        "w",
        "est"
      ],
      [
        "po",
        "si"
      ],
      [
        "re",
        "la"
      ],
      [
        "ex",
        "per"
      ],
      [
        "un",
        "der"
      ],
      [
        "u",
        "se"
      ],
      [
        "c",
        "our"
      ],
      [
        "bu",
        "ild"
      ],
      [
        "c",
        "ertain"
      ],
      [
        "inc",
        "l"
      ],
      [
        "b",
        "ec"
      ],
      [
        "be",
        "t"
      ],
      [
        "n",
        "at"
      ],
      [
        "g",
        "ener"
      ],
      [
        "m",
        "ar"
      ],
      [
        "ma",
        "jor"
      ],
      [
        "o",
        "f"
      ],
      [
        "di",
        "ffer"
      ],
      [
        "ha",
        "pp"
      ],
      [
        "n",
        "or"
      ],
      [
        "rec",
        "ent"
      ],
      [
        "w",
        "ind"
      ],
      [
        "h",
        "u"
      ],
      [
        "se",
        "a"
      ],
      [
        "fe",
        "el"
      ],
      [
        "a",
        "v"
      ],
      [
        "man",
        "age"
      ],
      [
        "m",
        "y"
      ],
      [
        "s",
        "ing"
      ],
      [
        "y",
        "ou"
      ],
      [
        "o",
        "ff"
      ],
      [
        "k",
        "now"
      ],
      [
        "t",
        "reat"
      ],
      [
        "ag",
        "ree"
      ],
      [
        "pro",
        "fe"
      ],
      [
        "e",
        "ar"
      ],
      [
        "T",
        "h"
      ],
      [
        "u",
        "t"
      ],
      [
        "o",
        "t"
      ],
      [
        "ver",
        "y"
      ],
      [
        "a",
        "st"
      ],
      [
        "P",
        "ro"
      ],
      [
        "i",
        "m"
      ],
      [
        "i",
        "de"
      ],
      [
        "i",
        "sh"
      ],
      [
        "n",
        "d"
      ],
      [
        "g",
        "ree"
      ],
      [
        "a",
        "se"
      ],
      [
        "i",
        "re"
      ],
      [
        "i",
        "g"
      ],
      [
        "u",
        "ch"
      ],
      [
        "De",
        "moc"
      ],
      [
        "p",
        "ort"
      ],
      [
        "it",
        "u"
      ],
      [
        "d",
        "d"
      ],
      [
        "ou",
        "th"
      ],
      [
        "au",
        "se"
      ],
      [
        "il",
        "lion"
      ],
      [
        "e",
        "at"
      ],
      [
        "mer",
        "cial"
      ],
      [
        "re",
        "nt"
      ],
      [
        "o",
        "re"
      ],
      [
        "n",
        "g"
      ],
      [
        "ar",
        "ac"
      ],
      [
        "arac",
        "ter"
      ],
      [
        "c",
        "ture"
      ],
      [
        "al",
        "ity"
      ],
      [
        "e",
        "ach"
      ],
      [
        "o",
        "ve"
      ],
      [
        "on",
        "der"
      ],
      [
        "ol",
        "di"
      ],
      [
        "ie",
        "ce"
      ],
      [
        "oldi",
        "er"
      ],
      [
        "b",
        "ility"
      ],
      [
        "i",
        "s"
      ],
      [
        "li",
        "sh"
      ],
      [
        "ab",
        "lish"
      ],
      [
        "i",
        "se"
      ],
      [
        "pu",
        "ter"
      ],
      [
        "her",
        "e"
      ],
      [
        "l",
        "ong"
      ],
      [
        "au",
        "gh"
      ],
      [
        "w",
        "er"
      ],
      [
        "gu",
        "age"
      ],
      [
        "ste",
        "m"
      ],
      [
        "e",
        "k"
      ],
      [
        "g",
        "ge"
      ],
      [
        "gge",
        "st"
      ],
      [
        "or",
        "ning"
      ],
      [
        "ste",
        "n"
      ],
      [
        "ro",
        "und"
      ],
      [
        "ow",
        "er"
      ],
      [
        "r",
        "ation"
      ],
      [
        "ru",
        "g"
      ],
      [
        "ist",
        "ration"
      ],
      [
        "ick",
        "ly"
      ],
      [
        "Mr",
        "s"
      ],
      [
        "min",
        "istration"
      ],
      [
        "f",
        "y"
      ],
      [
        "i",
        "mal"
      ],
      [
        "om",
        "ent"
      ],
      [
        "enti",
        "fy"
      ],
      [
        "i",
        "or"
      ],
      [
        "er",
        "al"
      ],
      [
        "en",
        "ior"
      ],
      [
        "at",
        "a"
      ],
      [
        "ffic",
        "ult"
      ],
      [
        "ed",
        "eral"
      ],
      [
        "jo",
        "y"
      ],
      [
        "c",
        "tor"
      ],
      [
        "k",
        "el"
      ],
      [
        "kel",
        "y"
      ],
      [
        "s",
        "ical"
      ],
      [
        "y",
        "sical"
      ],
      [
        "d",
        "ge"
      ],
      [
        "su",
        "ally"
      ],
      [
        "u",
        "ally"
      ],
      [
        "ic",
        "ate"
      ],
      [
        "ge",
        "ther"
      ],
      [
        "t",
        "in"
      ],
      [
        "u",
        "te"
      ],
      [
        "ec",
        "k"
      ],
      [
        "tin",
        "ue"
      ],
      [
        "ri",
        "end"
      ],
      [
        "c",
        "s"
      ],
      [
        "g",
        "ra"
      ],
      [
        "m",
        "mer"
      ],
      [
        "w",
        "n"
      ],
      [
        "ff",
        "ort"
      ],
      [
        "gra",
        "m"
      ],
      [
        "di",
        "tion"
      ],
      [
        "ur",
        "po"
      ],
      [
        "tec",
        "t"
      ],
      [
        "Re",
        "publ"
      ],
      [
        "urpo",
        "se"
      ],
      [
        "Republ",
        "ican"
      ],
      [
        "ro",
        "ss"
      ],
      [
        "le",
        "ar"
      ],
      [
        "f",
        "ense"
      ],
      [
        "ou",
        "nt"
      ],
      [
        "r",
        "at"
      ],
      [
        "u",
        "de"
      ],
      [
        "ec",
        "h"
      ],
      [
        "Democ",
        "rat"
      ],
      [
        "i",
        "ther"
      ],
      [
        "r",
        "ac"
      ],
      [
        "lo",
        "ye"
      ],
      [
        "mp",
        "loye"
      ],
      [
        "ur",
        "ing"
      ],
      [
        "rac",
        "tice"
      ],
      [
        "mploye",
        "e"
      ],
      [
        "c",
        "y"
      ],
      [
        "t",
        "le"
      ],
      [
        "in",
        "ing"
      ],
      [
        "en",
        "cy"
      ],
      [
        "it",
        "tle"
      ],
      [
        "al",
        "k"
      ],
      [
        "st",
        "itu"
      ],
      [
        "gin",
        "e"
      ],
      [
        "stitu",
        "tion"
      ],
      [
        "m",
        "ory"
      ],
      [
        "i",
        "ssion"
      ],
      [
        "ic",
        "ture"
      ],
      [
        "act",
        "ly"
      ],
      [
        "rea",
        "se"
      ],
      [
        "v",
        "il"
      ],
      [
        "ve",
        "s"
      ],
      [
        "sel",
        "ves"
      ],
      [
        "u",
        "me"
      ],
      [
        "v",
        "ol"
      ],
      [
        "se",
        "ver"
      ],
      [
        "ss",
        "ume"
      ],
      [
        "sh",
        "ip"
      ],
      [
        "el",
        "d"
      ],
      [
        "vol",
        "ve"
      ],
      [
        "sever",
        "al"
      ],
      [
        "C",
        "ong"
      ],
      [
        "n",
        "try"
      ],
      [
        "z",
        "en"
      ],
      [
        "for",
        "man"
      ],
      [
        "be",
        "gin"
      ],
      [
        "spa",
        "per"
      ],
      [
        "Cong",
        "ress"
      ],
      [
        "forman",
        "ce"
      ],
      [
        "st",
        "ment"
      ],
      [
        "ve",
        "stment"
      ],
      [
        "n",
        "ize"
      ],
      [
        "u",
        "mber"
      ],
      [
        "ro",
        "p"
      ],
      [
        "le",
        "vi"
      ],
      [
        "og",
        "nize"
      ],
      [
        "vo",
        "id"
      ],
      [
        "levi",
        "sion"
      ],
      [
        "p",
        "t"
      ],
      [
        "ce",
        "pt"
      ],
      [
        "sc",
        "ri"
      ],
      [
        "scri",
        "be"
      ],
      [
        "a",
        "z"
      ],
      [
        "f",
        "it"
      ],
      [
        "i",
        "ble"
      ],
      [
        "p",
        "pro"
      ],
      [
        "ss",
        "ible"
      ],
      [
        "ene",
        "fit"
      ],
      [
        "az",
        "ine"
      ],
      [
        "ppro",
        "ach"
      ],
      [
        "g",
        "an"
      ],
      [
        "en",
        "tr"
      ],
      [
        "per",
        "ty"
      ],
      [
        "iz",
        "ation"
      ],
      [
        "gan",
        "ization"
      ],
      [
        "entr",
        "al"
      ],
      [
        "m",
        "ile"
      ],
      [
        "in",
        "k"
      ],
      [
        "su",
        "mer"
      ],
      [
        "re",
        "ate"
      ],
      [
        "ar",
        "ious"
      ],
      [
        "com",
        "mercial"
      ],
      [
        "ol",
        "low"
      ],
      [
        "mer",
        "a"
      ],
      [
        "way",
        "s"
      ],
      [
        "fer",
        "ence"
      ],
      [
        "pport",
        "unity"
      ],
      [
        "to",
        "o"
      ],
      [
        "la",
        "im"
      ],
      [
        "di",
        "ence"
      ],
      [
        "ach",
        "ine"
      ],
      [
        "pla",
        "in"
      ],
      [
        "en",
        "ge"
      ],
      [
        "de",
        "l"
      ],
      [
        "ur",
        "al"
      ],
      [
        "ag",
        "er"
      ],
      [
        "all",
        "enge"
      ],
      [
        "c",
        "ern"
      ],
      [
        "p",
        "any"
      ],
      [
        "al",
        "ue"
      ],
      [
        "il",
        "y"
      ],
      [
        "am",
        "ily"
      ],
      [
        "c",
        "ord"
      ],
      [
        "i",
        "ally"
      ],
      [
        "m",
        "it"
      ],
      [
        "p",
        "ant"
      ],
      [
        "an",
        "cial"
      ],
      [
        "ke",
        "t"
      ],
      [
        "ri",
        "te"
      ],
      [
        "ci",
        "pant"
      ],
      [
        "spec",
        "ially"
      ],
      [
        "add",
        "ress"
      ],
      [
        "cord",
        "ing"
      ],
      [
        "A",
        "mer"
      ],
      [
        "d",
        "ence"
      ],
      [
        "u",
        "ture"
      ],
      [
        "ti",
        "ful"
      ],
      [
        "le",
        "ge"
      ],
      [
        "ac",
        "tor"
      ],
      [
        "vi",
        "dence"
      ],
      [
        "au",
        "tiful"
      ],
      [
        "ha",
        "ir"
      ],
      [
        "Amer",
        "ican"
      ],
      [
        "a",
        "fe"
      ],
      [
        "en",
        "ly"
      ],
      [
        "si",
        "der"
      ],
      [
        "we",
        "en"
      ],
      [
        "enti",
        "st"
      ],
      [
        "er",
        "e"
      ],
      [
        "us",
        "ic"
      ],
      [
        "stud",
        "ent"
      ],
      [
        "o",
        "ple"
      ],
      [
        "t",
        "ree"
      ],
      [
        "tr",
        "u"
      ],
      [
        "and",
        "id"
      ],
      [
        "ort",
        "ant"
      ],
      [
        "ea",
        "k"
      ],
      [
        "andid",
        "ate"
      ],
      [
        "f",
        "ter"
      ],
      [
        "t",
        "ty"
      ],
      [
        "re",
        "am"
      ],
      [
        "ti",
        "c"
      ],
      [
        "mal",
        "l"
      ],
      [
        "inde",
        "ed"
      ],
      [
        "ra",
        "tic"
      ],
      [
        "h",
        "ou"
      ],
      [
        "mil",
        "ar"
      ],
      [
        "u",
        "ff"
      ],
      [
        "el",
        "p"
      ],
      [
        "vi",
        "de"
      ],
      [
        "term",
        "ine"
      ],
      [
        "f",
        "le"
      ],
      [
        "ic",
        "y"
      ],
      [
        "sh",
        "e"
      ],
      [
        "ch",
        "aracter"
      ],
      [
        "ru",
        "le"
      ],
      [
        "ie",
        "s"
      ],
      [
        "atter",
        "n"
      ],
      [
        "fle",
        "ct"
      ],
      [
        "ve",
        "al"
      ],
      [
        "us",
        "ine"
      ],
      [
        "ri",
        "ce"
      ],
      [
        "und",
        "red"
      ],
      [
        "usine",
        "ss"
      ],
      [
        "n",
        "ment"
      ],
      [
        "u",
        "ble"
      ],
      [
        "en",
        "tion"
      ],
      [
        "th",
        "ough"
      ],
      [
        "se",
        "t"
      ],
      [
        "hi",
        "gh"
      ],
      [
        "ri",
        "age"
      ],
      [
        "o",
        "il"
      ],
      [
        "p",
        "ect"
      ],
      [
        "r",
        "ich"
      ],
      [
        "sp",
        "ital"
      ],
      [
        "ard",
        "en"
      ],
      [
        "ir",
        "l"
      ],
      [
        "di",
        "a"
      ],
      [
        "f",
        "t"
      ],
      [
        "p",
        "ital"
      ],
      [
        "p",
        "iece"
      ],
      [
        "v",
        "ity"
      ],
      [
        "ti",
        "vity"
      ],
      [
        "ta",
        "il"
      ],
      [
        "per",
        "ation"
      ],
      [
        "ste",
        "ad"
      ],
      [
        "fro",
        "nt"
      ],
      [
        "for",
        "ma"
      ],
      [
        "vi",
        "or"
      ],
      [
        "ate",
        "ver"
      ],
      [
        "ha",
        "vior"
      ],
      [
        "forma",
        "tion"
      ],
      [
        "st",
        "ru"
      ],
      [
        "tion",
        "al"
      ],
      [
        "est",
        "ion"
      ],
      [
        "com",
        "mon"
      ],
      [
        "ud",
        "ing"
      ],
      [
        "adi",
        "tional"
      ],
      [
        "stru",
        "cture"
      ],
      [
        "d",
        "le"
      ],
      [
        "in",
        "ner"
      ],
      [
        "id",
        "dle"
      ],
      [
        "tur",
        "al"
      ],
      [
        "s",
        "oldier"
      ],
      [
        "re",
        "en"
      ],
      [
        "or",
        "n"
      ],
      [
        "th",
        "od"
      ],
      [
        "ent",
        "ur"
      ],
      [
        "ther",
        "n"
      ],
      [
        "one",
        "y"
      ],
      [
        "up",
        "on"
      ],
      [
        "again",
        "st"
      ],
      [
        "augh",
        "ter"
      ],
      [
        "entur",
        "y"
      ],
      [
        "a",
        "head"
      ],
      [
        "c",
        "cur"
      ],
      [
        "p",
        "ick"
      ],
      [
        "an",
        "other"
      ],
      [
        "ar",
        "m"
      ],
      [
        "ty",
        "pe"
      ],
      [
        "r",
        "it"
      ],
      [
        "lo",
        "gy"
      ],
      [
        "si",
        "bility"
      ],
      [
        "com",
        "puter"
      ],
      [
        "ca",
        "tion"
      ],
      [
        "he",
        "alth"
      ],
      [
        "no",
        "logy"
      ],
      [
        "inter",
        "view"
      ],
      [
        "time",
        "s"
      ],
      [
        "rit",
        "er"
      ],
      [
        "a",
        "il"
      ],
      [
        "b",
        "ack"
      ],
      [
        "w",
        "in"
      ],
      [
        "y",
        "on"
      ],
      [
        "ou",
        "ght"
      ],
      [
        "net",
        "work"
      ],
      [
        "li",
        "sten"
      ],
      [
        "ail",
        "able"
      ],
      [
        "yon",
        "d"
      ],
      [
        "a",
        "mple"
      ],
      [
        "d",
        "ent"
      ],
      [
        "ss",
        "age"
      ],
      [
        "il",
        "m"
      ],
      [
        "su",
        "ggest"
      ],
      [
        "el",
        "ie"
      ],
      [
        "ne",
        "y"
      ],
      [
        "si",
        "dent"
      ],
      [
        "sp",
        "ite"
      ],
      [
        "ous",
        "and"
      ],
      [
        "di",
        "fficult"
      ],
      [
        "tor",
        "ney"
      ],
      [
        "cho",
        "ose"
      ],
      [
        "elie",
        "ve"
      ],
      [
        "e",
        "arly"
      ],
      [
        "om",
        "an"
      ],
      [
        "est",
        "ablish"
      ],
      [
        "ra",
        "w"
      ],
      [
        "lan",
        "guage"
      ],
      [
        "M",
        "e"
      ],
      [
        "b",
        "and"
      ],
      [
        "b",
        "ject"
      ],
      [
        "w",
        "onder"
      ],
      [
        "y",
        "si"
      ],
      [
        "al",
        "most"
      ],
      [
        "al",
        "ysi"
      ],
      [
        "us",
        "band"
      ],
      [
        "od",
        "ern"
      ],
      [
        "bab",
        "ly"
      ],
      [
        "politi",
        "cs"
      ],
      [
        "alysi",
        "s"
      ],
      [
        "be",
        "fore"
      ],
      [
        "every",
        "one"
      ],
      [
        "m",
        "orning"
      ],
      [
        "u",
        "ation"
      ],
      [
        "y",
        "ard"
      ],
      [
        "te",
        "l"
      ],
      [
        "te",
        "st"
      ],
      [
        "le",
        "dge"
      ],
      [
        "se",
        "at"
      ],
      [
        "sp",
        "ort"
      ],
      [
        "tra",
        "vel"
      ],
      [
        "be",
        "at"
      ],
      [
        "ans",
        "wer"
      ],
      [
        "cou",
        "ld"
      ],
      [
        "sit",
        "uation"
      ],
      [
        "do",
        "or"
      ],
      [
        "d",
        "ata"
      ],
      [
        "e",
        "ty"
      ],
      [
        "in",
        "ce"
      ],
      [
        "en",
        "joy"
      ],
      [
        "sh",
        "ould"
      ],
      [
        "cess",
        "ary"
      ],
      [
        "ci",
        "ety"
      ],
      [
        "ind",
        "icate"
      ],
      [
        "ea",
        "ce"
      ],
      [
        "ssion",
        "al"
      ],
      [
        "main",
        "tain"
      ],
      [
        "may",
        "be"
      ],
      [
        "e",
        "ye"
      ],
      [
        "l",
        "der"
      ],
      [
        "m",
        "uch"
      ],
      [
        "z",
        "e"
      ],
      [
        "ti",
        "l"
      ],
      [
        "ar",
        "ch"
      ],
      [
        "se",
        "arch"
      ],
      [
        "ad",
        "ministration"
      ],
      [
        "si",
        "ze"
      ],
      [
        "ke",
        "ep"
      ],
      [
        "di",
        "vi"
      ],
      [
        "ye",
        "s"
      ],
      [
        "du",
        "al"
      ],
      [
        "cho",
        "ol"
      ],
      [
        "adi",
        "o"
      ],
      [
        "divi",
        "dual"
      ],
      [
        "m",
        "oment"
      ],
      [
        "lo",
        "od"
      ],
      [
        "ab",
        "ility"
      ],
      [
        "real",
        "ize"
      ],
      [
        "ific",
        "ant"
      ],
      [
        "discu",
        "ssion"
      ],
      [
        "d",
        "rug"
      ],
      [
        "th",
        "ose"
      ],
      [
        "ce",
        "ive"
      ],
      [
        "qu",
        "ickly"
      ],
      [
        "ri",
        "me"
      ],
      [
        "with",
        "out"
      ],
      [
        "st",
        "ill"
      ],
      [
        "ar",
        "k"
      ],
      [
        "de",
        "ca"
      ],
      [
        "sha",
        "re"
      ],
      [
        "mil",
        "lion"
      ],
      [
        "deca",
        "de"
      ],
      [
        "p",
        "urpose"
      ],
      [
        "r",
        "un"
      ],
      [
        "u",
        "ce"
      ],
      [
        "w",
        "all"
      ],
      [
        "ro",
        "ther"
      ],
      [
        "al",
        "f"
      ],
      [
        "ac",
        "ross"
      ],
      [
        "for",
        "get"
      ],
      [
        "requ",
        "ire"
      ],
      [
        "wh",
        "om"
      ],
      [
        "ser",
        "ve"
      ],
      [
        "do",
        "ctor"
      ],
      [
        "sy",
        "stem"
      ],
      [
        "interest",
        "ing"
      ],
      [
        "l",
        "ant"
      ],
      [
        "to",
        "mer"
      ],
      [
        "de",
        "al"
      ],
      [
        "pro",
        "gram"
      ],
      [
        "ur",
        "ch"
      ],
      [
        "every",
        "body"
      ],
      [
        "develop",
        "ment"
      ],
      [
        "a",
        "ffect"
      ],
      [
        "f",
        "ederal"
      ],
      [
        "p",
        "ower"
      ],
      [
        "ro",
        "ve"
      ],
      [
        "to",
        "night"
      ],
      [
        "su",
        "mmer"
      ],
      [
        "any",
        "one"
      ],
      [
        "produ",
        "ct"
      ],
      [
        "e",
        "ither"
      ],
      [
        "in",
        "stitution"
      ],
      [
        "to",
        "p"
      ],
      [
        "to",
        "wn"
      ],
      [
        "it",
        "ch"
      ],
      [
        "su",
        "pport"
      ],
      [
        "con",
        "dition"
      ],
      [
        "la",
        "y"
      ],
      [
        "itch",
        "en"
      ],
      [
        "f",
        "ill"
      ],
      [
        "m",
        "ust"
      ],
      [
        "pa",
        "ign"
      ],
      [
        "enti",
        "re"
      ],
      [
        "ten",
        "d"
      ],
      [
        "a",
        "h"
      ],
      [
        "b",
        "ar"
      ],
      [
        "f",
        "ly"
      ],
      [
        "f",
        "all"
      ],
      [
        "p",
        "ractice"
      ],
      [
        "s",
        "tory"
      ],
      [
        "t",
        "ack"
      ],
      [
        "ye",
        "ah"
      ],
      [
        "id",
        "entify"
      ],
      [
        "ea",
        "st"
      ],
      [
        "an",
        "imal"
      ],
      [
        "li",
        "ght"
      ],
      [
        "no",
        "tice"
      ],
      [
        "act",
        "ually"
      ],
      [
        "bo",
        "x"
      ],
      [
        "bo",
        "ard"
      ],
      [
        "every",
        "thing"
      ],
      [
        "jo",
        "b"
      ],
      [
        "posi",
        "tive"
      ],
      [
        "b",
        "ase"
      ],
      [
        "c",
        "an"
      ],
      [
        "d",
        "uring"
      ],
      [
        "f",
        "ind"
      ],
      [
        "m",
        "outh"
      ],
      [
        "w",
        "rong"
      ],
      [
        "an",
        "ce"
      ],
      [
        "ex",
        "actly"
      ],
      [
        "new",
        "s"
      ],
      [
        "ph",
        "ysical"
      ],
      [
        "lear",
        "n"
      ],
      [
        "g",
        "ion"
      ],
      [
        "g",
        "ive"
      ],
      [
        "h",
        "ind"
      ],
      [
        "re",
        "ach"
      ],
      [
        "on",
        "ce"
      ],
      [
        "st",
        "rate"
      ],
      [
        "pa",
        "ss"
      ],
      [
        "tra",
        "de"
      ],
      [
        "pro",
        "cess"
      ],
      [
        "respon",
        "se"
      ],
      [
        "strate",
        "gy"
      ],
      [
        "l",
        "ittle"
      ],
      [
        "o",
        "pportunity"
      ],
      [
        "ch",
        "arge"
      ],
      [
        "la",
        "st"
      ],
      [
        "li",
        "kely"
      ],
      [
        "mo",
        "re"
      ],
      [
        "pre",
        "pare"
      ],
      [
        "pre",
        "vent"
      ],
      [
        "arti",
        "cle"
      ],
      [
        "cou",
        "ple"
      ],
      [
        "cou",
        "nt"
      ],
      [
        "cle",
        "ar"
      ],
      [
        "b",
        "y"
      ],
      [
        "e",
        "ight"
      ],
      [
        "e",
        "ffort"
      ],
      [
        "f",
        "riend"
      ],
      [
        "u",
        "sually"
      ],
      [
        "w",
        "ould"
      ],
      [
        "st",
        "ation"
      ],
      [
        "le",
        "g"
      ],
      [
        "ch",
        "ild"
      ],
      [
        "ca",
        "se"
      ],
      [
        "wa",
        "it"
      ],
      [
        "so",
        "on"
      ],
      [
        "we",
        "ight"
      ],
      [
        "rea",
        "k"
      ],
      [
        "sou",
        "th"
      ],
      [
        "direc",
        "tor"
      ],
      [
        "le",
        "vel"
      ],
      [
        "le",
        "ave"
      ],
      [
        "th",
        "an"
      ],
      [
        "lo",
        "cal"
      ],
      [
        "de",
        "fense"
      ],
      [
        "ss",
        "or"
      ],
      [
        "ste",
        "p"
      ],
      [
        "particul",
        "ar"
      ],
      [
        "m",
        "ission"
      ],
      [
        "s",
        "ame"
      ],
      [
        "ac",
        "cept"
      ],
      [
        "pro",
        "tect"
      ],
      [
        "ab",
        "out"
      ],
      [
        "arti",
        "st"
      ],
      [
        "fin",
        "ish"
      ],
      [
        "jo",
        "in"
      ],
      [
        "see",
        "k"
      ],
      [
        "new",
        "spaper"
      ],
      [
        "popul",
        "ation"
      ],
      [
        "care",
        "er"
      ],
      [
        "certain",
        "ly"
      ],
      [
        "b",
        "enefit"
      ],
      [
        "s",
        "enior"
      ],
      [
        "to",
        "gether"
      ],
      [
        "re",
        "port"
      ],
      [
        "al",
        "one"
      ],
      [
        "th",
        "us"
      ],
      [
        "con",
        "tinue"
      ],
      [
        "ke",
        "y"
      ],
      [
        "ful",
        "l"
      ],
      [
        "cle",
        "arly"
      ],
      [
        "his",
        "tory"
      ],
      [
        "particul",
        "arly"
      ],
      [
        "ima",
        "gine"
      ],
      [
        "through",
        "out"
      ],
      [
        "incl",
        "ude"
      ],
      [
        "b",
        "it"
      ],
      [
        "x",
        "t"
      ],
      [
        "te",
        "levision"
      ],
      [
        "sh",
        "ow"
      ],
      [
        "ne",
        "xt"
      ],
      [
        "pro",
        "perty"
      ],
      [
        "vi",
        "ce"
      ],
      [
        "ag",
        "ency"
      ],
      [
        "the",
        "ory"
      ],
      [
        "your",
        "self"
      ],
      [
        "a",
        "sk"
      ],
      [
        "a",
        "fter"
      ],
      [
        "b",
        "ill"
      ],
      [
        "f",
        "act"
      ],
      [
        "in",
        "volve"
      ],
      [
        "th",
        "at"
      ],
      [
        "it",
        "ary"
      ],
      [
        "ac",
        "tion"
      ],
      [
        "ch",
        "eck"
      ],
      [
        "see",
        "m"
      ],
      [
        "tal",
        "k"
      ],
      [
        "bec",
        "ause"
      ],
      [
        "c",
        "over"
      ],
      [
        "c",
        "enter"
      ],
      [
        "h",
        "it"
      ],
      [
        "p",
        "icture"
      ],
      [
        "de",
        "scribe"
      ],
      [
        "vi",
        "sit"
      ],
      [
        "fo",
        "ot"
      ],
      [
        "fi",
        "sh"
      ],
      [
        "pla",
        "y"
      ],
      [
        "sto",
        "p"
      ],
      [
        "produ",
        "ction"
      ],
      [
        "min",
        "ute"
      ],
      [
        "fore",
        "ign"
      ],
      [
        "stud",
        "y"
      ],
      [
        "fir",
        "m"
      ],
      [
        "j",
        "ust"
      ],
      [
        "me",
        "an"
      ],
      [
        "ri",
        "sk"
      ],
      [
        "li",
        "st"
      ],
      [
        "wh",
        "en"
      ],
      [
        "author",
        "ity"
      ],
      [
        "bo",
        "th"
      ],
      [
        "bl",
        "ack"
      ],
      [
        "inc",
        "rease"
      ],
      [
        "op",
        "en"
      ],
      [
        "ide",
        "a"
      ],
      [
        "in",
        "vestment"
      ],
      [
        "de",
        "ep"
      ],
      [
        "ne",
        "ar"
      ],
      [
        "sp",
        "ring"
      ],
      [
        "move",
        "ment"
      ],
      [
        "econom",
        "ic"
      ],
      [
        "a",
        "pproach"
      ],
      [
        "c",
        "ut"
      ],
      [
        "d",
        "rop"
      ],
      [
        "n",
        "ame"
      ],
      [
        "to",
        "ward"
      ],
      [
        "su",
        "ffer"
      ],
      [
        "si",
        "mp"
      ],
      [
        "com",
        "pare"
      ],
      [
        "sc",
        "ience"
      ],
      [
        "ra",
        "ce"
      ],
      [
        "son",
        "g"
      ],
      [
        "imp",
        "act"
      ],
      [
        "app",
        "ear"
      ],
      [
        "offic",
        "er"
      ],
      [
        "them",
        "selves"
      ],
      [
        "simp",
        "ly"
      ],
      [
        "w",
        "ill"
      ],
      [
        "w",
        "atch"
      ],
      [
        "ro",
        "le"
      ],
      [
        "to",
        "tal"
      ],
      [
        "to",
        "day"
      ],
      [
        "st",
        "ay"
      ],
      [
        "la",
        "ugh"
      ],
      [
        "be",
        "d"
      ],
      [
        "fe",
        "w"
      ],
      [
        "ima",
        "ge"
      ],
      [
        "n",
        "umber"
      ],
      [
        "p",
        "s"
      ],
      [
        "tion",
        "ship"
      ],
      [
        "ac",
        "cording"
      ],
      [
        "con",
        "cern"
      ],
      [
        "sp",
        "end"
      ],
      [
        "ta",
        "ke"
      ],
      [
        "own",
        "er"
      ],
      [
        "tra",
        "ining"
      ],
      [
        "ci",
        "vil"
      ],
      [
        "ha",
        "ps"
      ],
      [
        "wor",
        "ry"
      ],
      [
        "disc",
        "over"
      ],
      [
        "let",
        "ter"
      ],
      [
        "econom",
        "y"
      ],
      [
        "offic",
        "ial"
      ],
      [
        "who",
        "le"
      ],
      [
        "rela",
        "tionship"
      ],
      [
        "a",
        "sure"
      ],
      [
        "c",
        "reate"
      ],
      [
        "e",
        "mployee"
      ],
      [
        "g",
        "reat"
      ],
      [
        "k",
        "ind"
      ],
      [
        "w",
        "ar"
      ],
      [
        "tr",
        "ial"
      ],
      [
        "tr",
        "ip"
      ],
      [
        "for",
        "ward"
      ],
      [
        "me",
        "asure"
      ],
      [
        "con",
        "sumer"
      ],
      [
        "be",
        "autiful"
      ],
      [
        "po",
        "ssible"
      ],
      [
        "ater",
        "ial"
      ],
      [
        "grow",
        "th"
      ],
      [
        "deci",
        "de"
      ],
      [
        "whi",
        "le"
      ],
      [
        "b",
        "est"
      ],
      [
        "d",
        "rive"
      ],
      [
        "m",
        "achine"
      ],
      [
        "s",
        "afe"
      ],
      [
        "w",
        "o"
      ],
      [
        "ch",
        "allenge"
      ],
      [
        "per",
        "formance"
      ],
      [
        "man",
        "ager"
      ],
      [
        "fi",
        "re"
      ],
      [
        "bl",
        "ue"
      ],
      [
        "work",
        "er"
      ],
      [
        "b",
        "ate"
      ],
      [
        "h",
        "ome"
      ],
      [
        "l",
        "t"
      ],
      [
        "ro",
        "om"
      ],
      [
        "or",
        "ganization"
      ],
      [
        "th",
        "ir"
      ],
      [
        "ce",
        "ll"
      ],
      [
        "su",
        "dd"
      ],
      [
        "su",
        "lt"
      ],
      [
        "ta",
        "x"
      ],
      [
        "ther",
        "e"
      ],
      [
        "am",
        "ount"
      ],
      [
        "some",
        "thing"
      ],
      [
        "pla",
        "ce"
      ],
      [
        "her",
        "self"
      ],
      [
        "part",
        "ner"
      ],
      [
        "bet",
        "ween"
      ],
      [
        "thir",
        "d"
      ],
      [
        "sudd",
        "enly"
      ],
      [
        "al",
        "ways"
      ],
      [
        "ti",
        "zen"
      ],
      [
        "me",
        "mory"
      ],
      [
        "me",
        "thod"
      ],
      [
        "con",
        "ference"
      ],
      [
        "ci",
        "tizen"
      ],
      [
        "no",
        "te"
      ],
      [
        "gro",
        "up"
      ],
      [
        "part",
        "y"
      ],
      [
        "lead",
        "er"
      ],
      [
        "fir",
        "st"
      ],
      [
        "cour",
        "se"
      ],
      [
        "gener",
        "al"
      ],
      [
        "c",
        "ity"
      ],
      [
        "l",
        "ine"
      ],
      [
        "le",
        "ast"
      ],
      [
        "ch",
        "ange"
      ],
      [
        "sc",
        "ene"
      ],
      [
        "wh",
        "at"
      ],
      [
        "bo",
        "ok"
      ],
      [
        "ea",
        "sy"
      ],
      [
        "fi",
        "eld"
      ],
      [
        "cou",
        "ntry"
      ],
      [
        "cur",
        "rent"
      ],
      [
        "environment",
        "al"
      ],
      [
        "a",
        "ssume"
      ],
      [
        "f",
        "ar"
      ],
      [
        "i",
        "entist"
      ],
      [
        "m",
        "ind"
      ],
      [
        "or",
        "der"
      ],
      [
        "com",
        "pany"
      ],
      [
        "ca",
        "pital"
      ],
      [
        "sc",
        "ientist"
      ],
      [
        "pla",
        "yer"
      ],
      [
        "sou",
        "nd"
      ],
      [
        "deci",
        "sion"
      ],
      [
        "person",
        "al"
      ],
      [
        "of",
        "ten"
      ],
      [
        "m",
        "ention"
      ],
      [
        "v",
        "arious"
      ],
      [
        "sc",
        "ore"
      ],
      [
        "ex",
        "plain"
      ],
      [
        "po",
        "int"
      ],
      [
        "out",
        "side"
      ],
      [
        "fin",
        "ancial"
      ],
      [
        "exper",
        "t"
      ],
      [
        "a",
        "void"
      ],
      [
        "e",
        "vent"
      ],
      [
        "g",
        "ame"
      ],
      [
        "h",
        "old"
      ],
      [
        "m",
        "usic"
      ],
      [
        "s",
        "mall"
      ],
      [
        "w",
        "rite"
      ],
      [
        "re",
        "present"
      ],
      [
        "te",
        "am"
      ],
      [
        "al",
        "ready"
      ],
      [
        "th",
        "reat"
      ],
      [
        "th",
        "ink"
      ],
      [
        "lo",
        "ss"
      ],
      [
        "ar",
        "gue"
      ],
      [
        "ex",
        "ist"
      ],
      [
        "au",
        "dience"
      ],
      [
        "wh",
        "y"
      ],
      [
        "mo",
        "del"
      ],
      [
        "he",
        "ar"
      ],
      [
        "ra",
        "ther"
      ],
      [
        "ab",
        "ove"
      ],
      [
        "no",
        "t"
      ],
      [
        "wi",
        "sh"
      ],
      [
        "pol",
        "icy"
      ],
      [
        "col",
        "d"
      ],
      [
        "spa",
        "ce"
      ],
      [
        "mon",
        "th"
      ],
      [
        "teach",
        "er"
      ],
      [
        "popul",
        "ar"
      ],
      [
        "whi",
        "te"
      ],
      [
        "hu",
        "man"
      ],
      [
        "h",
        "our"
      ],
      [
        "re",
        "source"
      ],
      [
        "en",
        "ough"
      ],
      [
        "qu",
        "ality"
      ],
      [
        "la",
        "te"
      ],
      [
        "ta",
        "sk"
      ],
      [
        "so",
        "cial"
      ],
      [
        "some",
        "times"
      ],
      [
        "parti",
        "cipant"
      ],
      [
        "direc",
        "tion"
      ],
      [
        "exper",
        "ience"
      ],
      [
        "mar",
        "ket"
      ],
      [
        "b",
        "illion"
      ],
      [
        "o",
        "ffer"
      ],
      [
        "r",
        "face"
      ],
      [
        "s",
        "mile"
      ],
      [
        "su",
        "rface"
      ],
      [
        "pa",
        "st"
      ],
      [
        "si",
        "x"
      ],
      [
        "ri",
        "ght"
      ],
      [
        "the",
        "se"
      ],
      [
        "rec",
        "ognize"
      ],
      [
        "bab",
        "y"
      ],
      [
        "b",
        "all"
      ],
      [
        "d",
        "ical"
      ],
      [
        "f",
        "our"
      ],
      [
        "s",
        "end"
      ],
      [
        "y",
        "le"
      ],
      [
        "re",
        "turn"
      ],
      [
        "st",
        "yle"
      ],
      [
        "me",
        "dical"
      ],
      [
        "ca",
        "mera"
      ],
      [
        "pro",
        "vide"
      ],
      [
        "pol",
        "ice"
      ],
      [
        "e",
        "specially"
      ],
      [
        "m",
        "ight"
      ],
      [
        "it",
        "s"
      ],
      [
        "ne",
        "arly"
      ],
      [
        "bo",
        "y"
      ],
      [
        "ho",
        "spital"
      ],
      [
        "pul",
        "l"
      ],
      [
        "sto",
        "re"
      ],
      [
        "op",
        "tion"
      ],
      [
        "car",
        "ry"
      ],
      [
        "under",
        "stand"
      ],
      [
        "differ",
        "ence"
      ],
      [
        "happ",
        "y"
      ],
      [
        "b",
        "ag"
      ],
      [
        "c",
        "lose"
      ],
      [
        "f",
        "ollow"
      ],
      [
        "to",
        "ugh"
      ],
      [
        "re",
        "flect"
      ],
      [
        "al",
        "ong"
      ],
      [
        "go",
        "od"
      ],
      [
        "mo",
        "vie"
      ],
      [
        "he",
        "av"
      ],
      [
        "rec",
        "ord"
      ],
      [
        "execu",
        "tive"
      ],
      [
        "bu",
        "y"
      ],
      [
        "sto",
        "ck"
      ],
      [
        "heav",
        "y"
      ],
      [
        "c",
        "entral"
      ],
      [
        "f",
        "uture"
      ],
      [
        "r",
        "ange"
      ],
      [
        "v",
        "alue"
      ],
      [
        "re",
        "st"
      ],
      [
        "ar",
        "rive"
      ],
      [
        "de",
        "moc"
      ],
      [
        "tr",
        "aditional"
      ],
      [
        "rela",
        "te"
      ],
      [
        "cour",
        "t"
      ],
      [
        "nat",
        "ure"
      ],
      [
        "nat",
        "ural"
      ],
      [
        "democ",
        "ratic"
      ],
      [
        "a",
        "go"
      ],
      [
        "b",
        "ank"
      ],
      [
        "c",
        "andidate"
      ],
      [
        "g",
        "azine"
      ],
      [
        "h",
        "undred"
      ],
      [
        "l",
        "and"
      ],
      [
        "n",
        "tion"
      ],
      [
        "an",
        "alysis"
      ],
      [
        "th",
        "is"
      ],
      [
        "se",
        "ven"
      ],
      [
        "ss",
        "ure"
      ],
      [
        "qu",
        "ite"
      ],
      [
        "ma",
        "gazine"
      ],
      [
        "sp",
        "eak"
      ],
      [
        "li",
        "fe"
      ],
      [
        "atte",
        "ntion"
      ],
      [
        "pre",
        "ssure"
      ],
      [
        "fa",
        "st"
      ],
      [
        "col",
        "or"
      ],
      [
        "col",
        "lection"
      ],
      [
        "build",
        "ing"
      ],
      [
        "major",
        "ity"
      ],
      [
        "c",
        "laim"
      ],
      [
        "d",
        "get"
      ],
      [
        "ro",
        "ck"
      ],
      [
        "el",
        "se"
      ],
      [
        "ex",
        "pect"
      ],
      [
        "wh",
        "ere"
      ],
      [
        "pu",
        "sh"
      ],
      [
        "fi",
        "ve"
      ],
      [
        "bu",
        "dget"
      ],
      [
        "iss",
        "ue"
      ],
      [
        "f",
        "ight"
      ],
      [
        "g",
        "reen"
      ],
      [
        "se",
        "cur"
      ],
      [
        "we",
        "ar"
      ],
      [
        "fa",
        "ther"
      ],
      [
        "real",
        "ity"
      ],
      [
        "west",
        "ern"
      ],
      [
        "secur",
        "ity"
      ],
      [
        "a",
        "ff"
      ],
      [
        "p",
        "rice"
      ],
      [
        "s",
        "ense"
      ],
      [
        "te",
        "ll"
      ],
      [
        "st",
        "uff"
      ],
      [
        "st",
        "aff"
      ],
      [
        "for",
        "mer"
      ],
      [
        "ex",
        "ample"
      ],
      [
        "wh",
        "atever"
      ],
      [
        "tro",
        "uble"
      ],
      [
        "pre",
        "tty"
      ],
      [
        "no",
        "thing"
      ],
      [
        "sk",
        "ill"
      ],
      [
        "some",
        "body"
      ],
      [
        "inter",
        "national"
      ],
      [
        "spec",
        "ific"
      ],
      [
        "with",
        "in"
      ],
      [
        "C",
        "h"
      ],
      [
        "c",
        "all"
      ],
      [
        "c",
        "entury"
      ],
      [
        "d",
        "ream"
      ],
      [
        "d",
        "inner"
      ],
      [
        "e",
        "lection"
      ],
      [
        "f",
        "amily"
      ],
      [
        "g",
        "as"
      ],
      [
        "m",
        "atter"
      ],
      [
        "w",
        "ell"
      ],
      [
        "th",
        "ought"
      ],
      [
        "th",
        "ousand"
      ],
      [
        "de",
        "gree"
      ],
      [
        "ad",
        "mit"
      ],
      [
        "si",
        "mple"
      ],
      [
        "pro",
        "bably"
      ],
      [
        "go",
        "al"
      ],
      [
        "col",
        "lege"
      ],
      [
        "vo",
        "te"
      ],
      [
        "gu",
        "y"
      ],
      [
        "state",
        "ment"
      ],
      [
        "b",
        "usiness"
      ],
      [
        "f",
        "actor"
      ],
      [
        "h",
        "elp"
      ],
      [
        "in",
        "to"
      ],
      [
        "re",
        "main"
      ],
      [
        "st",
        "age"
      ],
      [
        "le",
        "ss"
      ],
      [
        "si",
        "milar"
      ],
      [
        "pro",
        "ve"
      ],
      [
        "li",
        "ve"
      ],
      [
        "any",
        "thing"
      ],
      [
        "imp",
        "ortant"
      ],
      [
        "spec",
        "ial"
      ],
      [
        "co",
        "ach"
      ],
      [
        "ph",
        "one"
      ],
      [
        "meet",
        "ing"
      ],
      [
        "T",
        "V"
      ],
      [
        "d",
        "og"
      ],
      [
        "o",
        "ccur"
      ],
      [
        "p",
        "attern"
      ],
      [
        "lo",
        "t"
      ],
      [
        "lo",
        "ok"
      ],
      [
        "ne",
        "ver"
      ],
      [
        "the",
        "ir"
      ],
      [
        "cul",
        "ture"
      ],
      [
        "ser",
        "ies"
      ],
      [
        "mar",
        "riage"
      ],
      [
        "differ",
        "ent"
      ],
      [
        "happ",
        "en"
      ],
      [
        "you",
        "ng"
      ],
      [
        "treat",
        "ment"
      ],
      [
        "b",
        "elieve"
      ],
      [
        "g",
        "ure"
      ],
      [
        "st",
        "er"
      ],
      [
        "sh",
        "ort"
      ],
      [
        "pa",
        "int"
      ],
      [
        "si",
        "ster"
      ],
      [
        "con",
        "sider"
      ],
      [
        "wi",
        "de"
      ],
      [
        "sk",
        "in"
      ],
      [
        "fi",
        "gure"
      ],
      [
        "ser",
        "ious"
      ],
      [
        "other",
        "s"
      ],
      [
        "paint",
        "ing"
      ],
      [
        "d",
        "aughter"
      ],
      [
        "e",
        "vidence"
      ],
      [
        "f",
        "ree"
      ],
      [
        "w",
        "riter"
      ],
      [
        "te",
        "ch"
      ],
      [
        "al",
        "so"
      ],
      [
        "st",
        "ree"
      ],
      [
        "de",
        "termine"
      ],
      [
        "qu",
        "estion"
      ],
      [
        "ind",
        "ust"
      ],
      [
        "fin",
        "al"
      ],
      [
        "hou",
        "se"
      ],
      [
        "tech",
        "nology"
      ],
      [
        "stree",
        "t"
      ],
      [
        "indust",
        "ry"
      ],
      [
        "a",
        "way"
      ],
      [
        "m",
        "odern"
      ],
      [
        "s",
        "chool"
      ],
      [
        "gro",
        "und"
      ],
      [
        "pe",
        "ople"
      ],
      [
        "pare",
        "nt"
      ],
      [
        "politi",
        "cal"
      ],
      [
        "bet",
        "ter"
      ],
      [
        "c",
        "ard"
      ],
      [
        "c",
        "up"
      ],
      [
        "e",
        "ffect"
      ],
      [
        "h",
        "usband"
      ],
      [
        "k",
        "id"
      ],
      [
        "w",
        "ant"
      ],
      [
        "in",
        "side"
      ],
      [
        "in",
        "formation"
      ],
      [
        "re",
        "member"
      ],
      [
        "de",
        "spite"
      ],
      [
        "me",
        "dia"
      ],
      [
        "ed",
        "ge"
      ],
      [
        "rea",
        "son"
      ],
      [
        "co",
        "st"
      ],
      [
        "law",
        "yer"
      ],
      [
        "discu",
        "ss"
      ],
      [
        "b",
        "orn"
      ],
      [
        "g",
        "un"
      ],
      [
        "g",
        "arden"
      ],
      [
        "m",
        "iddle"
      ],
      [
        "re",
        "veal"
      ],
      [
        "ne",
        "ed"
      ],
      [
        "ne",
        "cessary"
      ],
      [
        "ca",
        "use"
      ],
      [
        "be",
        "havior"
      ],
      [
        "gener",
        "ation"
      ],
      [
        "tru",
        "th"
      ],
      [
        "b",
        "ig"
      ],
      [
        "r",
        "adio"
      ],
      [
        "s",
        "ince"
      ],
      [
        "w",
        "oman"
      ],
      [
        "le",
        "ft"
      ],
      [
        "th",
        "ank"
      ],
      [
        "se",
        "con"
      ],
      [
        "ac",
        "tivity"
      ],
      [
        "su",
        "ch"
      ],
      [
        "wh",
        "ose"
      ],
      [
        "posi",
        "tion"
      ],
      [
        "secon",
        "d"
      ],
      [
        "g",
        "lass"
      ],
      [
        "in",
        "stead"
      ],
      [
        "it",
        "self"
      ],
      [
        "su",
        "bject"
      ],
      [
        "un",
        "til"
      ],
      [
        "the",
        "y"
      ],
      [
        "ra",
        "ise"
      ],
      [
        "ye",
        "ar"
      ],
      [
        "wi",
        "fe"
      ],
      [
        "feel",
        "ing"
      ],
      [
        "av",
        "ailable"
      ],
      [
        "a",
        "rea"
      ],
      [
        "o",
        "peration"
      ],
      [
        "s",
        "ay"
      ],
      [
        "st",
        "ar"
      ],
      [
        "st",
        "rong"
      ],
      [
        "de",
        "tail"
      ],
      [
        "be",
        "yond"
      ],
      [
        "respon",
        "d"
      ],
      [
        "him",
        "self"
      ],
      [
        "incl",
        "uding"
      ],
      [
        "bec",
        "ome"
      ],
      [
        "c",
        "rime"
      ],
      [
        "n",
        "one"
      ],
      [
        "n",
        "ice"
      ],
      [
        "se",
        "ction"
      ],
      [
        "so",
        "ciety"
      ],
      [
        "app",
        "ly"
      ],
      [
        "manage",
        "ment"
      ],
      [
        "l",
        "ater"
      ],
      [
        "l",
        "arge"
      ],
      [
        "m",
        "iss"
      ],
      [
        "re",
        "ally"
      ],
      [
        "ad",
        "ult"
      ],
      [
        "pre",
        "sident"
      ],
      [
        "hu",
        "ge"
      ],
      [
        "g",
        "ious"
      ],
      [
        "re",
        "li"
      ],
      [
        "ver",
        "nment"
      ],
      [
        "go",
        "vernment"
      ],
      [
        "wor",
        "ld"
      ],
      [
        "fo",
        "cus"
      ],
      [
        "nor",
        "th"
      ],
      [
        "know",
        "ledge"
      ],
      [
        "reli",
        "gious"
      ],
      [
        "b",
        "ring"
      ],
      [
        "ag",
        "ent"
      ],
      [
        "po",
        "or"
      ],
      [
        "vo",
        "ice"
      ],
      [
        "sou",
        "thern"
      ],
      [
        "wind",
        "ow"
      ],
      [
        "p",
        "eace"
      ],
      [
        "in",
        "dividual"
      ],
      [
        "on",
        "ly"
      ],
      [
        "de",
        "sign"
      ],
      [
        "ha",
        "ve"
      ],
      [
        "cul",
        "tural"
      ],
      [
        "respon",
        "sibility"
      ],
      [
        "my",
        "self"
      ],
      [
        "b",
        "ad"
      ],
      [
        "g",
        "irl"
      ],
      [
        "s",
        "ave"
      ],
      [
        "ac",
        "count"
      ],
      [
        "fe",
        "ar"
      ],
      [
        "red",
        "uce"
      ],
      [
        "ye",
        "t"
      ],
      [
        "a",
        "round"
      ],
      [
        "e",
        "ther"
      ],
      [
        "m",
        "oney"
      ],
      [
        "al",
        "low"
      ],
      [
        "wh",
        "ether"
      ],
      [
        "am",
        "ong"
      ],
      [
        "pu",
        "t"
      ],
      [
        "even",
        "ing"
      ],
      [
        "f",
        "ine"
      ],
      [
        "f",
        "und"
      ],
      [
        "st",
        "art"
      ],
      [
        "th",
        "en"
      ],
      [
        "at",
        "torney"
      ],
      [
        "me",
        "ssage"
      ],
      [
        "per",
        "form"
      ],
      [
        "flo",
        "or"
      ],
      [
        "publ",
        "ic"
      ],
      [
        "how",
        "ever"
      ],
      [
        "cus",
        "tomer"
      ],
      [
        "recent",
        "ly"
      ],
      [
        "sea",
        "son"
      ],
      [
        "u",
        "cation"
      ],
      [
        "ed",
        "ucation"
      ],
      [
        "man",
        "y"
      ],
      [
        "we",
        "ek"
      ],
      [
        "ho",
        "pe"
      ],
      [
        "mil",
        "itary"
      ],
      [
        "sign",
        "ificant"
      ],
      [
        "sing",
        "le"
      ],
      [
        "f",
        "ilm"
      ],
      [
        "re",
        "search"
      ],
      [
        "re",
        "gion"
      ],
      [
        "ch",
        "urch"
      ],
      [
        "be",
        "hind"
      ],
      [
        "li",
        "ke"
      ],
      [
        "ho",
        "tel"
      ],
      [
        "off",
        "ice"
      ],
      [
        "profe",
        "ssional"
      ],
      [
        "m",
        "paign"
      ],
      [
        "s",
        "ort"
      ],
      [
        "ca",
        "mpaign"
      ],
      [
        "un",
        "it"
      ],
      [
        "ener",
        "gy"
      ],
      [
        "re",
        "ceive"
      ],
      [
        "mo",
        "ther"
      ],
      [
        "c",
        "lass"
      ],
      [
        "ch",
        "ance"
      ],
      [
        "h",
        "ard"
      ],
      [
        "alth",
        "ough"
      ],
      [
        "gue",
        "ss"
      ],
      [
        "P",
        "M"
      ],
      [
        "b",
        "rother"
      ],
      [
        "d",
        "ark"
      ],
      [
        "h",
        "alf"
      ],
      [
        "w",
        "alk"
      ],
      [
        "ou",
        "lder"
      ],
      [
        "sh",
        "oulder"
      ],
      [
        "imp",
        "rove"
      ],
      [
        "profe",
        "ssor"
      ],
      [
        "ma",
        "ke"
      ],
      [
        "some",
        "one"
      ],
      [
        "agree",
        "ment"
      ],
      [
        "e",
        "ech"
      ],
      [
        "sp",
        "eech"
      ],
      [
        "ri",
        "se"
      ],
      [
        "wor",
        "d"
      ],
      [
        "b",
        "lood"
      ],
      [
        "k",
        "itchen"
      ],
      [
        "p",
        "lant"
      ],
      [
        "on",
        "to"
      ],
      [
        "th",
        "ree"
      ],
      [
        "con",
        "tain"
      ],
      [
        "de",
        "bate"
      ],
      [
        "C",
        "on"
      ],
      [
        "D",
        "i"
      ],
      [
        "b",
        "reak"
      ],
      [
        "p",
        "lan"
      ],
      [
        "at",
        "tack"
      ],
      [
        "d",
        "raw"
      ],
      [
        "w",
        "ater"
      ],
      [
        "ch",
        "air"
      ],
      [
        "bu",
        "t"
      ],
      [
        "P",
        "o"
      ],
      [
        "pa",
        "per"
      ],
      [
        "si",
        "te"
      ],
      [
        "re",
        "sult"
      ],
      [
        "c",
        "atch"
      ],
      [
        "m",
        "aterial"
      ],
      [
        "ite",
        "m"
      ],
      [
        "stand",
        "ard"
      ],
      [
        "produ",
        "ce"
      ],
      [
        "m",
        "unity"
      ],
      [
        "com",
        "munity"
      ],
      [
        "thro",
        "w"
      ],
      [
        "tr",
        "ue"
      ],
      [
        "fin",
        "ally"
      ],
      [
        "wh",
        "ich"
      ],
      [
        "t",
        "wo"
      ],
      [
        "pro",
        "ject"
      ],
      [
        "fo",
        "od"
      ],
      [
        "ser",
        "vice"
      ],
      [
        "cho",
        "ice"
      ],
      [
        "per",
        "haps"
      ],
      [
        "he",
        "art"
      ],
      [
        "sel",
        "l"
      ],
      [
        "ho",
        "t"
      ],
      [
        "E",
        "x"
      ],
      [
        "T",
        "he"
      ],
      [
        "A",
        "l"
      ],
      [
        "S",
        "u"
      ],
      [
        "B",
        "e"
      ],
      [
        "S",
        "t"
      ],
      [
        "P",
        "er"
      ],
      [
        "W",
        "h"
      ],
      [
        "S",
        "ta"
      ],
      [
        "L",
        "e"
      ],
      [
        "F",
        "or"
      ],
      [
        "A",
        "r"
      ],
      [
        "E",
        "n"
      ],
      [
        "A",
        "n"
      ],
      [
        "P",
        "re"
      ],
      [
        "S",
        "p"
      ],
      [
        "N",
        "e"
      ],
      [
        "H",
        "e"
      ],
      [
        "B",
        "o"
      ],
      [
        "S",
        "ome"
      ],
      [
        "S",
        "er"
      ],
      [
        "A",
        "g"
      ],
      [
        "T",
        "o"
      ],
      [
        "A",
        "c"
      ],
      [
        "R",
        "ec"
      ],
      [
        "A",
        "t"
      ],
      [
        "R",
        "o"
      ],
      [
        "W",
        "i"
      ],
      [
        "N",
        "o"
      ],
      [
        "L",
        "i"
      ],
      [
        "C",
        "a"
      ],
      [
        "S",
        "o"
      ],
      [
        "Q",
        "u"
      ],
      [
        "E",
        "very"
      ],
      [
        "W",
        "or"
      ],
      [
        "F",
        "in"
      ],
      [
        "O",
        "n"
      ],
      [
        "In",
        "ter"
      ],
      [
        "P",
        "ol"
      ],
      [
        "M",
        "an"
      ],
      [
        "T",
        "ra"
      ],
      [
        "L",
        "o"
      ],
      [
        "M",
        "a"
      ],
      [
        "C",
        "ol"
      ],
      [
        "Th",
        "ro"
      ],
      [
        "R",
        "el"
      ],
      [
        "A",
        "d"
      ],
      [
        "F",
        "e"
      ],
      [
        "B",
        "u"
      ],
      [
        "In",
        "c"
      ],
      [
        "I",
        "mp"
      ],
      [
        "Wi",
        "th"
      ],
      [
        "G",
        "o"
      ],
      [
        "A",
        "u"
      ],
      [
        "G",
        "ro"
      ],
      [
        "P",
        "art"
      ],
      [
        "O",
        "r"
      ],
      [
        "Re",
        "spon"
      ],
      [
        "P",
        "arti"
      ],
      [
        "S",
        "e"
      ],
      [
        "Ne",
        "w"
      ],
      [
        "P",
        "a"
      ],
      [
        "M",
        "o"
      ],
      [
        "H",
        "o"
      ],
      [
        "R",
        "a"
      ],
      [
        "W",
        "ho"
      ],
      [
        "I",
        "t"
      ],
      [
        "Di",
        "sc"
      ],
      [
        "F",
        "o"
      ],
      [
        "Pro",
        "du"
      ],
      [
        "D",
        "ec"
      ],
      [
        "An",
        "y"
      ],
      [
        "W",
        "hi"
      ],
      [
        "Po",
        "si"
      ],
      [
        "W",
        "e"
      ],
      [
        "Di",
        "rec"
      ],
      [
        "H",
        "u"
      ],
      [
        "Re",
        "ad"
      ],
      [
        "Ag",
        "ain"
      ],
      [
        "P",
        "u"
      ],
      [
        "T",
        "reat"
      ],
      [
        "Thro",
        "ugh"
      ],
      [
        "K",
        "e"
      ],
      [
        "A",
        "ct"
      ],
      [
        "N",
        "at"
      ],
      [
        "O",
        "ther"
      ],
      [
        "S",
        "ign"
      ],
      [
        "W",
        "ind"
      ],
      [
        "Rec",
        "ent"
      ],
      [
        "A",
        "dd"
      ],
      [
        "M",
        "ay"
      ],
      [
        "C",
        "ho"
      ],
      [
        "H",
        "im"
      ],
      [
        "S",
        "ou"
      ],
      [
        "De",
        "velop"
      ],
      [
        "Ma",
        "jor"
      ],
      [
        "Fe",
        "el"
      ],
      [
        "Inc",
        "l"
      ],
      [
        "F",
        "ro"
      ],
      [
        "Y",
        "our"
      ],
      [
        "Me",
        "et"
      ],
      [
        "S",
        "h"
      ],
      [
        "Le",
        "ad"
      ],
      [
        "I",
        "ma"
      ],
      [
        "L",
        "a"
      ],
      [
        "M",
        "y"
      ],
      [
        "ea",
        "son"
      ],
      [
        "En",
        "vironment"
      ],
      [
        "La",
        "w"
      ],
      [
        "C",
        "our"
      ],
      [
        "H",
        "ow"
      ],
      [
        "S",
        "i"
      ],
      [
        "ul",
        "l"
      ],
      [
        "Sp",
        "ec"
      ],
      [
        "Ca",
        "re"
      ],
      [
        "Bu",
        "ild"
      ],
      [
        "C",
        "ar"
      ],
      [
        "S",
        "k"
      ],
      [
        "Y",
        "ou"
      ],
      [
        "The",
        "m"
      ],
      [
        "Gro",
        "w"
      ],
      [
        "C",
        "ul"
      ],
      [
        "F",
        "ir"
      ],
      [
        "M",
        "ain"
      ],
      [
        "O",
        "f"
      ],
      [
        "Po",
        "pul"
      ],
      [
        "A",
        "pp"
      ],
      [
        "B",
        "ec"
      ],
      [
        "C",
        "ou"
      ],
      [
        "S",
        "to"
      ],
      [
        "Au",
        "thor"
      ],
      [
        "G",
        "ener"
      ],
      [
        "M",
        "ar"
      ],
      [
        "N",
        "ation"
      ],
      [
        "T",
        "each"
      ],
      [
        "K",
        "now"
      ],
      [
        "Parti",
        "cul"
      ],
      [
        "S",
        "ci"
      ],
      [
        "T",
        "a"
      ],
      [
        "T",
        "ri"
      ],
      [
        "H",
        "app"
      ],
      [
        "P",
        "h"
      ],
      [
        "U",
        "p"
      ],
      [
        "St",
        "and"
      ],
      [
        "C",
        "o"
      ],
      [
        "H",
        "er"
      ],
      [
        "R",
        "ed"
      ],
      [
        "V",
        "o"
      ],
      [
        "A",
        "gree"
      ],
      [
        "C",
        "ertain"
      ],
      [
        "F",
        "a"
      ],
      [
        "O",
        "ff"
      ],
      [
        "O",
        "ffic"
      ],
      [
        "Pro",
        "fe"
      ],
      [
        "O",
        "p"
      ],
      [
        "S",
        "ha"
      ],
      [
        "Di",
        "ffer"
      ],
      [
        "Se",
        "e"
      ],
      [
        "J",
        "o"
      ],
      [
        "O",
        "ut"
      ],
      [
        "et",
        "ter"
      ],
      [
        "Ar",
        "ti"
      ],
      [
        "A",
        "m"
      ],
      [
        "S",
        "imp"
      ],
      [
        "T",
        "e"
      ],
      [
        "T",
        "ru"
      ],
      [
        "Re",
        "al"
      ],
      [
        "Su",
        "ccess"
      ],
      [
        "St",
        "ud"
      ],
      [
        "E",
        "ven"
      ],
      [
        "H",
        "is"
      ],
      [
        "W",
        "est"
      ],
      [
        "Disc",
        "u"
      ],
      [
        "M",
        "ove"
      ],
      [
        "Ex",
        "per"
      ],
      [
        "Wor",
        "k"
      ],
      [
        "Inter",
        "est"
      ],
      [
        "Sta",
        "te"
      ],
      [
        "Per",
        "son"
      ],
      [
        "B",
        "l"
      ],
      [
        "S",
        "ing"
      ],
      [
        "Un",
        "der"
      ],
      [
        "E",
        "con"
      ],
      [
        "Econ",
        "om"
      ],
      [
        "P",
        "la"
      ],
      [
        "Man",
        "age"
      ],
      [
        "Pol",
        "iti"
      ],
      [
        "He",
        "alth"
      ],
      [
        "H",
        "and"
      ],
      [
        "N",
        "et"
      ],
      [
        "W",
        "ar"
      ],
      [
        "Net",
        "work"
      ],
      [
        "D",
        "raw"
      ],
      [
        "B",
        "ag"
      ],
      [
        "Th",
        "ough"
      ],
      [
        "Po",
        "int"
      ],
      [
        "Ser",
        "ious"
      ],
      [
        "B",
        "ank"
      ],
      [
        "L",
        "ot"
      ],
      [
        "S",
        "eat"
      ],
      [
        "S",
        "enior"
      ],
      [
        "T",
        "i"
      ],
      [
        "Posi",
        "tive"
      ],
      [
        "Am",
        "ount"
      ],
      [
        "Ti",
        "me"
      ],
      [
        "A",
        "round"
      ],
      [
        "E",
        "lection"
      ],
      [
        "L",
        "ea"
      ],
      [
        "T",
        "v"
      ],
      [
        "Lea",
        "ve"
      ],
      [
        "G",
        "irl"
      ],
      [
        "W",
        "ell"
      ],
      [
        "Go",
        "od"
      ],
      [
        "Major",
        "ity"
      ],
      [
        "Meet",
        "ing"
      ],
      [
        "Bec",
        "ome"
      ],
      [
        "A",
        "ction"
      ],
      [
        "C",
        "ell"
      ],
      [
        "H",
        "air"
      ],
      [
        "M",
        "in"
      ],
      [
        "M",
        "ag"
      ],
      [
        "O",
        "ver"
      ],
      [
        "O",
        "ld"
      ],
      [
        "R",
        "un"
      ],
      [
        "Sta",
        "tion"
      ],
      [
        "Ag",
        "ent"
      ],
      [
        "Part",
        "ner"
      ],
      [
        "Whi",
        "te"
      ],
      [
        "Min",
        "ute"
      ],
      [
        "Mag",
        "azine"
      ],
      [
        "B",
        "ud"
      ],
      [
        "E",
        "mployee"
      ],
      [
        "E",
        "vidence"
      ],
      [
        "F",
        "ull"
      ],
      [
        "G",
        "over"
      ],
      [
        "K",
        "ind"
      ],
      [
        "S",
        "tru"
      ],
      [
        "T",
        "his"
      ],
      [
        "Un",
        "it"
      ],
      [
        "Ch",
        "eck"
      ],
      [
        "Wh",
        "at"
      ],
      [
        "Pre",
        "sent"
      ],
      [
        "So",
        "on"
      ],
      [
        "Lo",
        "cal"
      ],
      [
        "Again",
        "st"
      ],
      [
        "Treat",
        "ment"
      ],
      [
        "Ke",
        "y"
      ],
      [
        "Bud",
        "get"
      ],
      [
        "Gover",
        "nment"
      ],
      [
        "Stru",
        "cture"
      ],
      [
        "C",
        "over"
      ],
      [
        "C",
        "ause"
      ],
      [
        "C",
        "entral"
      ],
      [
        "F",
        "ar"
      ],
      [
        "R",
        "est"
      ],
      [
        "T",
        "ry"
      ],
      [
        "W",
        "onder"
      ],
      [
        "Po",
        "or"
      ],
      [
        "Sta",
        "y"
      ],
      [
        "To",
        "gether"
      ],
      [
        "Li",
        "kely"
      ],
      [
        "Tra",
        "de"
      ],
      [
        "Direc",
        "tion"
      ],
      [
        "Cho",
        "ice"
      ],
      [
        "B",
        "ase"
      ],
      [
        "B",
        "lood"
      ],
      [
        "C",
        "enter"
      ],
      [
        "F",
        "our"
      ],
      [
        "F",
        "amily"
      ],
      [
        "K",
        "id"
      ],
      [
        "P",
        "e"
      ],
      [
        "S",
        "y"
      ],
      [
        "W",
        "ould"
      ],
      [
        "Me",
        "mory"
      ],
      [
        "Ch",
        "arge"
      ],
      [
        "Con",
        "tinue"
      ],
      [
        "Con",
        "sider"
      ],
      [
        "Al",
        "ready"
      ],
      [
        "Per",
        "form"
      ],
      [
        "An",
        "imal"
      ],
      [
        "Rec",
        "ognize"
      ],
      [
        "Tra",
        "ining"
      ],
      [
        "Hu",
        "man"
      ],
      [
        "Your",
        "self"
      ],
      [
        "Pe",
        "ople"
      ],
      [
        "Sy",
        "stem"
      ],
      [
        "A",
        "way"
      ],
      [
        "A",
        "ssume"
      ],
      [
        "C",
        "laim"
      ],
      [
        "E",
        "du"
      ],
      [
        "F",
        "actor"
      ],
      [
        "I",
        "d"
      ],
      [
        "M",
        "illion"
      ],
      [
        "M",
        "oney"
      ],
      [
        "O",
        "w"
      ],
      [
        "O",
        "ffer"
      ],
      [
        "P",
        "ower"
      ],
      [
        "R",
        "ise"
      ],
      [
        "T",
        "ough"
      ],
      [
        "U",
        "sually"
      ],
      [
        "de",
        "ed"
      ],
      [
        "De",
        "ep"
      ],
      [
        "In",
        "deed"
      ],
      [
        "Ch",
        "ange"
      ],
      [
        "Su",
        "ffer"
      ],
      [
        "Ser",
        "vice"
      ],
      [
        "To",
        "tal"
      ],
      [
        "Ro",
        "le"
      ],
      [
        "Ro",
        "ad"
      ],
      [
        "Ad",
        "mit"
      ],
      [
        "Whi",
        "le"
      ],
      [
        "Through",
        "out"
      ],
      [
        "Edu",
        "cation"
      ],
      [
        "Id",
        "entify"
      ],
      [
        "Ow",
        "ner"
      ],
      [
        "A",
        "s"
      ],
      [
        "A",
        "void"
      ],
      [
        "C",
        "ase"
      ],
      [
        "E",
        "a"
      ],
      [
        "F",
        "i"
      ],
      [
        "F",
        "ire"
      ],
      [
        "F",
        "ollow"
      ],
      [
        "F",
        "ilm"
      ],
      [
        "L",
        "etter"
      ],
      [
        "O",
        "il"
      ],
      [
        "P",
        "ay"
      ],
      [
        "T",
        "y"
      ],
      [
        "W",
        "ill"
      ],
      [
        "W",
        "ord"
      ],
      [
        "Y",
        "e"
      ],
      [
        "Re",
        "present"
      ],
      [
        "Me",
        "mber"
      ],
      [
        "Ar",
        "t"
      ],
      [
        "Ma",
        "ke"
      ],
      [
        "Col",
        "lege"
      ],
      [
        "Fo",
        "cus"
      ],
      [
        "Care",
        "er"
      ],
      [
        "Cul",
        "tural"
      ],
      [
        "Nation",
        "al"
      ],
      [
        "Ph",
        "ysical"
      ],
      [
        "Op",
        "en"
      ],
      [
        "Success",
        "ful"
      ],
      [
        "Ea",
        "sy"
      ],
      [
        "Fi",
        "eld"
      ],
      [
        "Ty",
        "pe"
      ],
      [
        "Ye",
        "s"
      ],
      [
        "C",
        "ut"
      ],
      [
        "H",
        "ome"
      ],
      [
        "J",
        "ust"
      ],
      [
        "N",
        "ow"
      ],
      [
        "P",
        "m"
      ],
      [
        "P",
        "ick"
      ],
      [
        "S",
        "ite"
      ],
      [
        "S",
        "hou"
      ],
      [
        "T",
        "er"
      ],
      [
        "T",
        "ur"
      ],
      [
        "W",
        "here"
      ],
      [
        "bl",
        "ic"
      ],
      [
        "Re",
        "veal"
      ],
      [
        "ig",
        "ious"
      ],
      [
        "The",
        "ir"
      ],
      [
        "En",
        "ough"
      ],
      [
        "No",
        "thing"
      ],
      [
        "Lo",
        "ok"
      ],
      [
        "Rel",
        "igious"
      ],
      [
        "Direc",
        "tor"
      ],
      [
        "Hu",
        "ge"
      ],
      [
        "Pu",
        "sh"
      ],
      [
        "Pu",
        "blic"
      ],
      [
        "Sh",
        "ould"
      ],
      [
        "Spec",
        "ial"
      ],
      [
        "You",
        "ng"
      ],
      [
        "Cou",
        "ntry"
      ],
      [
        "Shou",
        "lder"
      ],
      [
        "Ter",
        "m"
      ],
      [
        "Tur",
        "n"
      ],
      [
        "A",
        "no"
      ],
      [
        "B",
        "ed"
      ],
      [
        "B",
        "ill"
      ],
      [
        "C",
        "iti"
      ],
      [
        "C",
        "lose"
      ],
      [
        "E",
        "st"
      ],
      [
        "F",
        "ine"
      ],
      [
        "F",
        "act"
      ],
      [
        "F",
        "ive"
      ],
      [
        "F",
        "riend"
      ],
      [
        "L",
        "ight"
      ],
      [
        "O",
        "peration"
      ],
      [
        "P",
        "lant"
      ],
      [
        "R",
        "eason"
      ],
      [
        "S",
        "uch"
      ],
      [
        "S",
        "mile"
      ],
      [
        "T",
        "ow"
      ],
      [
        "T",
        "od"
      ],
      [
        "W",
        "rong"
      ],
      [
        "s",
        "wer"
      ],
      [
        "De",
        "gree"
      ],
      [
        "De",
        "termine"
      ],
      [
        "De",
        "tail"
      ],
      [
        "Pro",
        "tect"
      ],
      [
        "Me",
        "ssage"
      ],
      [
        "Ch",
        "aracter"
      ],
      [
        "The",
        "ory"
      ],
      [
        "For",
        "mer"
      ],
      [
        "An",
        "swer"
      ],
      [
        "At",
        "torney"
      ],
      [
        "Ca",
        "mera"
      ],
      [
        "Col",
        "lection"
      ],
      [
        "Imp",
        "ortant"
      ],
      [
        "Posi",
        "tion"
      ],
      [
        "Read",
        "y"
      ],
      [
        "Nat",
        "ural"
      ],
      [
        "Other",
        "s"
      ],
      [
        "Sou",
        "thern"
      ],
      [
        "Feel",
        "ing"
      ],
      [
        "Fro",
        "m"
      ],
      [
        "Gener",
        "ation"
      ],
      [
        "Out",
        "side"
      ],
      [
        "Ano",
        "ther"
      ],
      [
        "Citi",
        "zen"
      ],
      [
        "Est",
        "ablish"
      ],
      [
        "Tow",
        "ard"
      ],
      [
        "Tod",
        "ay"
      ],
      [
        "B",
        "ab"
      ],
      [
        "C",
        "an"
      ],
      [
        "C",
        "ould"
      ],
      [
        "E",
        "ffort"
      ],
      [
        "F",
        "lo"
      ],
      [
        "F",
        "ederal"
      ],
      [
        "G",
        "arden"
      ],
      [
        "I",
        "te"
      ],
      [
        "O",
        "ne"
      ],
      [
        "S",
        "c"
      ],
      [
        "S",
        "ense"
      ],
      [
        "S",
        "how"
      ],
      [
        "S",
        "oldier"
      ],
      [
        "V",
        "alue"
      ],
      [
        "Y",
        "et"
      ],
      [
        "Re",
        "ally"
      ],
      [
        "In",
        "stead"
      ],
      [
        "Ex",
        "ist"
      ],
      [
        "He",
        "ad"
      ],
      [
        "Wi",
        "fe"
      ],
      [
        "Bu",
        "y"
      ],
      [
        "With",
        "out"
      ],
      [
        "Respon",
        "sibility"
      ],
      [
        "Pa",
        "ss"
      ],
      [
        "Ima",
        "ge"
      ],
      [
        "Cour",
        "t"
      ],
      [
        "Co",
        "st"
      ],
      [
        "Fa",
        "ther"
      ],
      [
        "Jo",
        "in"
      ],
      [
        "Bab",
        "y"
      ],
      [
        "Flo",
        "or"
      ],
      [
        "Ite",
        "m"
      ],
      [
        "Sc",
        "ene"
      ],
      [
        "A",
        "sk"
      ],
      [
        "B",
        "ring"
      ],
      [
        "B",
        "illion"
      ],
      [
        "B",
        "eat"
      ],
      [
        "C",
        "i"
      ],
      [
        "D",
        "ream"
      ],
      [
        "D",
        "ark"
      ],
      [
        "E",
        "ach"
      ],
      [
        "E",
        "vent"
      ],
      [
        "F",
        "ast"
      ],
      [
        "H",
        "ou"
      ],
      [
        "K",
        "itchen"
      ],
      [
        "L",
        "ow"
      ],
      [
        "M",
        "ed"
      ],
      [
        "S",
        "on"
      ],
      [
        "S",
        "ti"
      ],
      [
        "S",
        "ur"
      ],
      [
        "S",
        "ist"
      ],
      [
        "T",
        "en"
      ],
      [
        "T",
        "est"
      ],
      [
        "V",
        "ie"
      ],
      [
        "Th",
        "ink"
      ],
      [
        "Al",
        "one"
      ],
      [
        "Per",
        "formance"
      ],
      [
        "Le",
        "ft"
      ],
      [
        "Bo",
        "y"
      ],
      [
        "Ser",
        "ve"
      ],
      [
        "Ac",
        "tivity"
      ],
      [
        "At",
        "tack"
      ],
      [
        "Ho",
        "tel"
      ],
      [
        "We",
        "ek"
      ],
      [
        "Act",
        "ually"
      ],
      [
        "Nat",
        "ure"
      ],
      [
        "Him",
        "self"
      ],
      [
        "Incl",
        "ude"
      ],
      [
        "Incl",
        "uding"
      ],
      [
        "Environment",
        "al"
      ],
      [
        "Si",
        "milar"
      ],
      [
        "App",
        "ly"
      ],
      [
        "Sci",
        "ence"
      ],
      [
        "Vo",
        "ice"
      ],
      [
        "Stud",
        "ent"
      ],
      [
        "Ci",
        "vil"
      ],
      [
        "Hou",
        "se"
      ],
      [
        "Med",
        "ical"
      ],
      [
        "Sti",
        "ll"
      ],
      [
        "Sur",
        "face"
      ],
      [
        "Sist",
        "er"
      ],
      [
        "Vie",
        "w"
      ],
      [
        "A",
        "bility"
      ],
      [
        "B",
        "ut"
      ],
      [
        "B",
        "rother"
      ],
      [
        "D",
        "rive"
      ],
      [
        "D",
        "rug"
      ],
      [
        "F",
        "uture"
      ],
      [
        "H",
        "old"
      ],
      [
        "H",
        "ere"
      ],
      [
        "H",
        "elp"
      ],
      [
        "H",
        "alf"
      ],
      [
        "M",
        "ea"
      ],
      [
        "M",
        "ore"
      ],
      [
        "N",
        "ice"
      ],
      [
        "P",
        "attern"
      ],
      [
        "R",
        "ate"
      ],
      [
        "S",
        "he"
      ],
      [
        "S",
        "pe"
      ],
      [
        "S",
        "tory"
      ],
      [
        "S",
        "port"
      ],
      [
        "T",
        "ho"
      ],
      [
        "W",
        "a"
      ],
      [
        "W",
        "ant"
      ],
      [
        "ation",
        "ship"
      ],
      [
        "Com",
        "mercial"
      ],
      [
        "Do",
        "or"
      ],
      [
        "De",
        "al"
      ],
      [
        "De",
        "fense"
      ],
      [
        "Me",
        "dia"
      ],
      [
        "Su",
        "pport"
      ],
      [
        "Per",
        "haps"
      ],
      [
        "Wh",
        "y"
      ],
      [
        "Wh",
        "ich"
      ],
      [
        "Pre",
        "tty"
      ],
      [
        "Some",
        "thing"
      ],
      [
        "Ser",
        "ies"
      ],
      [
        "Ag",
        "ency"
      ],
      [
        "No",
        "te"
      ],
      [
        "Qu",
        "ickly"
      ],
      [
        "Wor",
        "ry"
      ],
      [
        "Rel",
        "ationship"
      ],
      [
        "Respon",
        "d"
      ],
      [
        "Ra",
        "ther"
      ],
      [
        "Produ",
        "ce"
      ],
      [
        "Build",
        "ing"
      ],
      [
        "Fir",
        "m"
      ],
      [
        "Popul",
        "ar"
      ],
      [
        "Tri",
        "al"
      ],
      [
        "Offic",
        "ial"
      ],
      [
        "Profe",
        "ssional"
      ],
      [
        "Mea",
        "sure"
      ],
      [
        "Spe",
        "ech"
      ],
      [
        "Tho",
        "se"
      ],
      [
        "Wa",
        "it"
      ],
      [
        "C",
        "ur"
      ],
      [
        "C",
        "atch"
      ],
      [
        "E",
        "specially"
      ],
      [
        "F",
        "ight"
      ],
      [
        "H",
        "ave"
      ],
      [
        "L",
        "an"
      ],
      [
        "L",
        "ay"
      ],
      [
        "L",
        "ose"
      ],
      [
        "L",
        "ater"
      ],
      [
        "L",
        "ear"
      ],
      [
        "L",
        "ast"
      ],
      [
        "M",
        "orning"
      ],
      [
        "N",
        "ear"
      ],
      [
        "S",
        "tro"
      ],
      [
        "S",
        "itu"
      ],
      [
        "U",
        "s"
      ],
      [
        "V",
        "i"
      ],
      [
        "V",
        "arious"
      ],
      [
        "W",
        "he"
      ],
      [
        "Com",
        "puter"
      ],
      [
        "Do",
        "ctor"
      ],
      [
        "Comm",
        "unity"
      ],
      [
        "Re",
        "search"
      ],
      [
        "Re",
        "ceive"
      ],
      [
        "Be",
        "havior"
      ],
      [
        "For",
        "m"
      ],
      [
        "Pre",
        "pare"
      ],
      [
        "He",
        "art"
      ],
      [
        "Some",
        "one"
      ],
      [
        "Ro",
        "ck"
      ],
      [
        "Every",
        "one"
      ],
      [
        "Fin",
        "ally"
      ],
      [
        "Fe",
        "w"
      ],
      [
        "Se",
        "ek"
      ],
      [
        "Sou",
        "nd"
      ],
      [
        "Sk",
        "in"
      ],
      [
        "Them",
        "selves"
      ],
      [
        "Grow",
        "th"
      ],
      [
        "Sto",
        "ck"
      ],
      [
        "Sha",
        "re"
      ],
      [
        "Simp",
        "le"
      ],
      [
        "Person",
        "al"
      ],
      [
        "Cur",
        "rent"
      ],
      [
        "Lan",
        "guage"
      ],
      [
        "Lear",
        "n"
      ],
      [
        "Stro",
        "ng"
      ],
      [
        "Situ",
        "ation"
      ],
      [
        "Vi",
        "sit"
      ],
      [
        "Whe",
        "ther"
      ],
      [
        "A",
        "long"
      ],
      [
        "B",
        "usiness"
      ],
      [
        "C",
        "andidate"
      ],
      [
        "E",
        "arly"
      ],
      [
        "L",
        "ist"
      ],
      [
        "L",
        "ive"
      ],
      [
        "M",
        "outh"
      ],
      [
        "M",
        "oment"
      ],
      [
        "P",
        "iece"
      ],
      [
        "S",
        "it"
      ],
      [
        "S",
        "ort"
      ],
      [
        "S",
        "tree"
      ],
      [
        "In",
        "formation"
      ],
      [
        "Th",
        "reat"
      ],
      [
        "The",
        "y"
      ],
      [
        "Al",
        "so"
      ],
      [
        "Al",
        "low"
      ],
      [
        "Al",
        "though"
      ],
      [
        "St",
        "uff"
      ],
      [
        "For",
        "ce"
      ],
      [
        "Sp",
        "eak"
      ],
      [
        "Bo",
        "th"
      ],
      [
        "On",
        "to"
      ],
      [
        "Col",
        "or"
      ],
      [
        "Rel",
        "ate"
      ],
      [
        "Ad",
        "ministration"
      ],
      [
        "Inc",
        "rease"
      ],
      [
        "Imp",
        "act"
      ],
      [
        "Imp",
        "rove"
      ],
      [
        "Au",
        "dience"
      ],
      [
        "Who",
        "se"
      ],
      [
        "Wind",
        "ow"
      ],
      [
        "Recent",
        "ly"
      ],
      [
        "Fro",
        "nt"
      ],
      [
        "Sk",
        "ill"
      ],
      [
        "Mar",
        "riage"
      ],
      [
        "Happ",
        "y"
      ],
      [
        "Certain",
        "ly"
      ],
      [
        "Work",
        "er"
      ],
      [
        "Stree",
        "t"
      ],
      [
        "B",
        "est"
      ],
      [
        "C",
        "up"
      ],
      [
        "C",
        "lear"
      ],
      [
        "E",
        "l"
      ],
      [
        "E",
        "ner"
      ],
      [
        "G",
        "un"
      ],
      [
        "H",
        "our"
      ],
      [
        "H",
        "ot"
      ],
      [
        "L",
        "ine"
      ],
      [
        "M",
        "ight"
      ],
      [
        "M",
        "iddle"
      ],
      [
        "N",
        "umber"
      ],
      [
        "P",
        "icture"
      ],
      [
        "S",
        "econ"
      ],
      [
        "S",
        "ide"
      ],
      [
        "W",
        "ater"
      ],
      [
        "i",
        "sion"
      ],
      [
        "Th",
        "ing"
      ],
      [
        "Me",
        "an"
      ],
      [
        "Ch",
        "ild"
      ],
      [
        "Con",
        "tain"
      ],
      [
        "Ex",
        "plain"
      ],
      [
        "Pre",
        "sident"
      ],
      [
        "Ad",
        "ult"
      ],
      [
        "With",
        "in"
      ],
      [
        "Or",
        "der"
      ],
      [
        "Or",
        "ganization"
      ],
      [
        "Mo",
        "del"
      ],
      [
        "It",
        "self"
      ],
      [
        "Dec",
        "ision"
      ],
      [
        "Ke",
        "ep"
      ],
      [
        "Sign",
        "ificant"
      ],
      [
        "May",
        "be"
      ],
      [
        "Ima",
        "gine"
      ],
      [
        "Si",
        "x"
      ],
      [
        "Particul",
        "arly"
      ],
      [
        "Ta",
        "ke"
      ],
      [
        "Differ",
        "ent"
      ],
      [
        "El",
        "se"
      ],
      [
        "Ener",
        "gy"
      ],
      [
        "Secon",
        "d"
      ],
      [
        "A",
        "ble"
      ],
      [
        "B",
        "ack"
      ],
      [
        "B",
        "orn"
      ],
      [
        "B",
        "reak"
      ],
      [
        "C",
        "ard"
      ],
      [
        "C",
        "lass"
      ],
      [
        "E",
        "ight"
      ],
      [
        "F",
        "ly"
      ],
      [
        "G",
        "lass"
      ],
      [
        "H",
        "it"
      ],
      [
        "I",
        "f"
      ],
      [
        "L",
        "augh"
      ],
      [
        "M",
        "iss"
      ],
      [
        "P",
        "rice"
      ],
      [
        "S",
        "tra"
      ],
      [
        "S",
        "ame"
      ],
      [
        "S",
        "even"
      ],
      [
        "S",
        "eason"
      ],
      [
        "V",
        "ery"
      ],
      [
        "W",
        "ide"
      ],
      [
        "te",
        "gy"
      ],
      [
        "qu",
        "ire"
      ],
      [
        "Nor",
        "th"
      ],
      [
        "Com",
        "pare"
      ],
      [
        "Comm",
        "on"
      ],
      [
        "Re",
        "main"
      ],
      [
        "Re",
        "port"
      ],
      [
        "Re",
        "quire"
      ],
      [
        "Democ",
        "ratic"
      ],
      [
        "Po",
        "ssible"
      ],
      [
        "Al",
        "ways"
      ],
      [
        "Su",
        "ggest"
      ],
      [
        "Be",
        "yond"
      ],
      [
        "Ar",
        "gue"
      ],
      [
        "Wor",
        "ld"
      ],
      [
        "Fin",
        "ish"
      ],
      [
        "Thro",
        "w"
      ],
      [
        "Gro",
        "up"
      ],
      [
        "Parti",
        "cipant"
      ],
      [
        "Sh",
        "ort"
      ],
      [
        "Cour",
        "se"
      ],
      [
        "Car",
        "ry"
      ],
      [
        "Fir",
        "st"
      ],
      [
        "Of",
        "ten"
      ],
      [
        "Popul",
        "ation"
      ],
      [
        "Sto",
        "re"
      ],
      [
        "Mar",
        "ket"
      ],
      [
        "Particul",
        "ar"
      ],
      [
        "Up",
        "on"
      ],
      [
        "Her",
        "self"
      ],
      [
        "Arti",
        "cle"
      ],
      [
        "Stra",
        "tegy"
      ],
      [
        "A",
        "v"
      ],
      [
        "B",
        "y"
      ],
      [
        "D",
        "og"
      ],
      [
        "D",
        "ata"
      ],
      [
        "D",
        "rop"
      ],
      [
        "E",
        "nd"
      ],
      [
        "F",
        "all"
      ],
      [
        "F",
        "und"
      ],
      [
        "H",
        "ear"
      ],
      [
        "L",
        "ittle"
      ],
      [
        "L",
        "east"
      ],
      [
        "M",
        "ind"
      ],
      [
        "M",
        "atter"
      ],
      [
        "N",
        "early"
      ],
      [
        "O",
        "wn"
      ],
      [
        "P",
        "age"
      ],
      [
        "P",
        "lan"
      ],
      [
        "P",
        "eace"
      ],
      [
        "R",
        "ight"
      ],
      [
        "R",
        "ange"
      ],
      [
        "S",
        "ource"
      ],
      [
        "S",
        "et"
      ],
      [
        "T",
        "ro"
      ],
      [
        "T",
        "op"
      ],
      [
        "U",
        "se"
      ],
      [
        "W",
        "alk"
      ],
      [
        "W",
        "rite"
      ],
      [
        "Y",
        "ard"
      ],
      [
        "st",
        "ry"
      ],
      [
        "du",
        "stry"
      ],
      [
        "Re",
        "source"
      ],
      [
        "Re",
        "ality"
      ],
      [
        "In",
        "vestment"
      ],
      [
        "In",
        "dustry"
      ],
      [
        "Th",
        "at"
      ],
      [
        "Pro",
        "cess"
      ],
      [
        "Con",
        "ference"
      ],
      [
        "The",
        "se"
      ],
      [
        "Be",
        "fore"
      ],
      [
        "Wh",
        "en"
      ],
      [
        "Le",
        "vel"
      ],
      [
        "En",
        "joy"
      ],
      [
        "Pre",
        "vent"
      ],
      [
        "Qu",
        "estion"
      ],
      [
        "Inter",
        "national"
      ],
      [
        "Tra",
        "vel"
      ],
      [
        "New",
        "s"
      ],
      [
        "Add",
        "ress"
      ],
      [
        "Ta",
        "x"
      ],
      [
        "See",
        "m"
      ],
      [
        "Te",
        "am"
      ],
      [
        "Discu",
        "ssion"
      ],
      [
        "Av",
        "ailable"
      ],
      [
        "Tro",
        "uble"
      ],
      [
        "A",
        "rea"
      ],
      [
        "A",
        "ffect"
      ],
      [
        "D",
        "uring"
      ],
      [
        "F",
        "ore"
      ],
      [
        "G",
        "ue"
      ],
      [
        "L",
        "ong"
      ],
      [
        "P",
        "lay"
      ],
      [
        "S",
        "ection"
      ],
      [
        "T",
        "here"
      ],
      [
        "T",
        "wo"
      ],
      [
        "W",
        "in"
      ],
      [
        "Com",
        "pany"
      ],
      [
        "Re",
        "ach"
      ],
      [
        "Re",
        "member"
      ],
      [
        "De",
        "sign"
      ],
      [
        "In",
        "side"
      ],
      [
        "In",
        "volve"
      ],
      [
        "In",
        "dividual"
      ],
      [
        "Th",
        "an"
      ],
      [
        "Pro",
        "ve"
      ],
      [
        "Pro",
        "ject"
      ],
      [
        "Ch",
        "urch"
      ],
      [
        "Con",
        "dition"
      ],
      [
        "Con",
        "sumer"
      ],
      [
        "Su",
        "mmer"
      ],
      [
        "Sta",
        "ge"
      ],
      [
        "Le",
        "g"
      ],
      [
        "Ar",
        "m"
      ],
      [
        "Rec",
        "ord"
      ],
      [
        "Li",
        "sten"
      ],
      [
        "So",
        "cial"
      ],
      [
        "Qu",
        "ality"
      ],
      [
        "Every",
        "thing"
      ],
      [
        "Fin",
        "ancial"
      ],
      [
        "Lo",
        "ss"
      ],
      [
        "Pa",
        "rent"
      ],
      [
        "Mo",
        "st"
      ],
      [
        "Disc",
        "over"
      ],
      [
        "Cho",
        "ose"
      ],
      [
        "My",
        "self"
      ],
      [
        "Spec",
        "ific"
      ],
      [
        "App",
        "ear"
      ],
      [
        "Know",
        "ledge"
      ],
      [
        "Real",
        "ize"
      ],
      [
        "Move",
        "ment"
      ],
      [
        "Fore",
        "ign"
      ],
      [
        "Gue",
        "ss"
      ],
      [
        "A",
        "ir"
      ],
      [
        "A",
        "ll"
      ],
      [
        "A",
        "nd"
      ],
      [
[...]
